{
  "version": "1.0",
  "truncation": null,
  "padding": null,
  "added_tokens": [
    {
      "id": 0,
      "content": "<pad>",
      "single_word": false,
      "lstrip": false,
      "rstrip": false,
      "normalized": false,
      "special": true
    },
    {
      "id": 1,
      "content": "<s>",
      "single_word": false,
      "lstrip": false,
      "rstrip": false,
      "normalized": false,
      "special": true
    },
    {
      "id": 2,
      "content": "</s>",
      "single_word": false,
      "lstrip": false,
      "rstrip": false,
      "normalized": false,
      "special": true
    }
  ],
  "normalizer": null,
  "pre_tokenizer": {
    "type": "ByteLevel",
    "add_prefix_space": true,
    "trim_offsets": true,
    "use_regex": true
  },
  "post_processor": null,
  "decoder": {
    "type": "ByteLevel",
    "add_prefix_space": true,
    "trim_offsets": true,
    "use_regex": true
  },
  "model": {
    "type": "BPE",
    "dropout": null,
    "unk_token": null,
    "continuing_subword_prefix": null,
    "end_of_word_suffix": null,
    "fuse_unk": false,
    "byte_fallback": false,
    "ignore_merges": false,
    "vocab": {
      "<pad>": 0,
      "<s>": 1,
      "</s>": 2,
      "!": 3,
      "\"": 4,
      "&": 5,
      "'": 6,
      "(": 7,
      ")": 8,
      "*": 9,
      ",": 10,
      "-": 11,
      ".": 12,
      "0": 13,
      "1": 14,
      "2": 15,
      "3": 16,
      "4": 17,
      "5": 18,
      "6": 19,
      "7": 20,
      "8": 21,
      "9": 22,
      ":": 23,
      ";": 24,
      "?": 25,
      "A": 26,
      "B": 27,
      "C": 28,
      "D": 29,
      "E": 30,
      "F": 31,
      "G": 32,
      "H": 33,
      "I": 34,
      "J": 35,
      "K": 36,
      "L": 37,
      "M": 38,
      "N": 39,
      "O": 40,
      "P": 41,
      "Q": 42,
      "R": 43,
      "S": 44,
      "T": 45,
      "U": 46,
      "V": 47,
      "W": 48,
      "X": 49,
      "Y": 50,
      "Z": 51,
      "[": 52,
      "\\": 53,
      "]": 54,
      "a": 55,
      "b": 56,
      "c": 57,
      "d": 58,
      "e": 59,
      "f": 60,
      "g": 61,
      "h": 62,
      "i": 63,
      "j": 64,
      "k": 65,
      "l": 66,
      "m": 67,
      "n": 68,
      "o": 69,
      "p": 70,
      "q": 71,
      "r": 72,
      "s": 73,
      "t": 74,
      "u": 75,
      "v": 76,
      "w": 77,
      "x": 78,
      "y": 79,
      "z": 80,
      "¡": 81,
      "¢": 82,
      "£": 83,
      "¤": 84,
      "¦": 85,
      "§": 86,
      "¨": 87,
      "©": 88,
      "ª": 89,
      "«": 90,
      "°": 91,
      "´": 92,
      "¶": 93,
      "»": 94,
      "¼": 95,
      "Â": 96,
      "Ã": 97,
      "Å": 98,
      "â": 99,
      "Ċ": 100,
      "Ę": 101,
      "Ġ": 102,
      "Ģ": 103,
      "ĵ": 104,
      "Ķ": 105,
      "ĺ": 106,
      "Ļ": 107,
      "ľ": 108,
      "Ŀ": 109,
      "ł": 110,
      "Ń": 111,
      "Ġt": 112,
      "he": 113,
      "Ġa": 114,
      "in": 115,
      "Ġthe": 116,
      "Ġw": 117,
      "Ġs": 118,
      "Ġo": 119,
      "re": 120,
      "nd": 121,
      "Ġh": 122,
      "er": 123,
      "Ġm": 124,
      "ou": 125,
      "Ġb": 126,
      "at": 127,
      "it": 128,
      "is": 129,
      "Ġf": 130,
      "ed": 131,
      "Ġc": 132,
      "en": 133,
      "âĢ": 134,
      "Ġof": 135,
      "Ġand": 136,
      "Ġto": 137,
      "on": 138,
      "Ġth": 139,
      "Ġd": 140,
      "or": 141,
      "ll": 142,
      "es": 143,
      "ar": 144,
      "ing": 145,
      "an": 146,
      "Ġp": 147,
      "Ġl": 148,
      "as": 149,
      "Ġin": 150,
      "ĠI": 151,
      "Ġhe": 152,
      "Ġn": 153,
      "om": 154,
      "Ġbe": 155,
      "Ġha": 156,
      "Ġg": 157,
      "ow": 158,
      "le": 159,
      "ot": 160,
      "ld": 161,
      "ut": 162,
      "im": 163,
      "ve": 164,
      "ic": 165,
      "st": 166,
      "Ġe": 167,
      "se": 168,
      "Ġy": 169,
      "ĠâĢ": 170,
      "Ġthat": 171,
      "ly": 172,
      "Ġwh": 173,
      "id": 174,
      "Ġit": 175,
      "gh": 176,
      "Ġon": 177,
      "et": 178,
      "Ġwas": 179,
      "Ġu": 180,
      "ver": 181,
      "ay": 182,
      "ent": 183,
      "ith": 184,
      "ĠT": 185,
      "Ġhis": 186,
      "Ġas": 187,
      "ce": 188,
      "Ġre": 189,
      "Ġyou": 190,
      "Ġwith": 191,
      "ad": 192,
      "Ġfor": 193,
      "ir": 194,
      "al": 195,
      "ur": 196,
      "Ġis": 197,
      "Ġwe": 198,
      "Ġst": 199,
      "ion": 200,
      "Ġmy": 201,
      "ĠâĢĶ": 202,
      "Ġr": 203,
      "ght": 204,
      "Ġhad": 205,
      "Ġme": 206,
      "her": 207,
      "Ġan": 208,
      "ac": 209,
      "Ġnot": 210,
      "ould": 211,
      "oo": 212,
      "ĠH": 213,
      "Ġat": 214,
      "am": 215,
      "ill": 216,
      "ter": 217,
      "if": 218,
      "ĠB": 219,
      "ke": 220,
      "Ġhim": 221,
      "ain": 222,
      "Ġsh": 223,
      "ĠThe": 224,
      "âĢĿ": 225,
      "ch": 226,
      "ĠA": 227,
      "all": 228,
      "Ġhave": 229,
      "Ġfr": 230,
      "Ġ\"": 231,
      "ess": 232,
      "âĢĻ": 233,
      "Ġse": 234,
      "ight": 235,
      "ore": 236,
      "Ġher": 237,
      "Ġsa": 238,
      "ro": 239,
      "Ġsu": 240,
      "ĠM": 241,
      "il": 242,
      "Ġso": 243,
      "th": 244,
      "Ġde": 245,
      "red": 246,
      "ĠS": 247,
      "Ġall": 248,
      "ich": 249,
      "ard": 250,
      "ome": 251,
      "Ġman": 252,
      "ge": 253,
      "est": 254,
      "pe": 255,
      "Ġwhich": 256,
      "Ġk": 257,
      "ri": 258,
      "ra": 259,
      "ĠW": 260,
      "Ġbut": 261,
      "ust": 262,
      "Ġdo": 263,
      "Ġup": 264,
      "'s": 265,
      "ct": 266,
      "Ġne": 267,
      "ul": 268,
      "and": 269,
      "lf": 270,
      "Ġfrom": 271,
      "Ġwhe": 272,
      "qu": 273,
      "ĠC": 274,
      "Ġal": 275,
      "Ġone": 276,
      "Ġwho": 277,
      "ble": 278,
      "ie": 279,
      "Ġsaid": 280,
      "ous": 281,
      "Ġby": 282,
      "Ġv": 283,
      "ant": 284,
      "us": 285,
      "Ġwould": 286,
      "Ġthis": 287,
      "ast": 288,
      "ĠHe": 289,
      "to": 290,
      "Ġcon": 291,
      "pp": 292,
      "ong": 293,
      "Ġno": 294,
      "res": 295,
      "Ġthere": 296,
      "ĠâĢľ": 297,
      "Ġor": 298,
      "Ġthey": 299,
      "Ġare": 300,
      "ind": 301,
      "Ġch": 302,
      "our": 303,
      "un": 304,
      "Ġshe": 305,
      "Ġfe": 306,
      "ers": 307,
      "Ġli": 308,
      "ĠP": 309,
      "very": 310,
      "Ġthou": 311,
      "Ġkn": 312,
      "ak": 313,
      "Ġwere": 314,
      "art": 315,
      "ood": 316,
      "self": 317,
      "Ġthem": 318,
      "one": 319,
      "ate": 320,
      "Ġout": 321,
      "ack": 322,
      "Ġun": 323,
      "ame": 324,
      "ol": 325,
      "Ġbeen": 326,
      "Ġex": 327,
      "Ġwor": 328,
      "em": 329,
      "ĠL": 330,
      "ound": 331,
      "âĢľ": 332,
      "ath": 333,
      "ap": 334,
      "um": 335,
      "os": 336,
      "ook": 337,
      "ig": 338,
      "Ġwill": 339,
      "Ġle": 340,
      "out": 341,
      "ist": 342,
      "Ġcom": 343,
      "itt": 344,
      "ĠG": 345,
      "ven": 346,
      "own": 347,
      "Ġab": 348,
      ".âĢĿ": 349,
      "od": 350,
      "Ġsp": 351,
      "Ġag": 352,
      "reat": 353,
      "ck": 354,
      "ake": 355,
      "Ġj": 356,
      "ost": 357,
      "ĠF": 358,
      "ity": 359,
      "Ġwhen": 360,
      "ation": 361,
      "ive": 362,
      "Ġtheir": 363,
      "ell": 364,
      "eth": 365,
      "Ġgo": 366,
      "ag": 367,
      "ry": 368,
      "Ġam": 369,
      "au": 370,
      ".\"": 371,
      "ĠN": 372,
      "Ġinto": 373,
      "ĠO": 374,
      "ide": 375,
      "Ġus": 376,
      "Ġyour": 377,
      "ĠK": 378,
      "Ġar": 379,
      "hed": 380,
      "ose": 381,
      "ure": 382,
      "hat": 383,
      "ĠE": 384,
      "way": 385,
      "Ġtr": 386,
      "ort": 387,
      "Ġmore": 388,
      "Ġcan": 389,
      "nt": 390,
      "ĠIt": 391,
      "ng": 392,
      "Ġaf": 393,
      "ine": 394,
      "ther": 395,
      "âĢĶ": 396,
      "Ġif": 397,
      "ep": 398,
      "Ġqu": 399,
      "op": 400,
      "wn": 401,
      "Ġpl": 402,
      "Ġbr": 403,
      "ough": 404,
      "Ġnow": 405,
      "el": 406,
      "nder": 407,
      "Ġwhat": 408,
      ",\"": 409,
      "ace": 410,
      "ĠD": 411,
      "Ġover": 412,
      "Ġpro": 413,
      "ah": 414,
      "Ġany": 415,
      "Ġdid": 416,
      "Ġagain": 417,
      "ice": 418,
      "ink": 419,
      "ĠBut": 420,
      "ish": 421,
      "able": 422,
      "Ġold": 423,
      "Ġcould": 424,
      "fore": 425,
      "Ġthan": 426,
      "ance": 427,
      "Ġknow": 428,
      "ite": 429,
      "Ġye": 430,
      "ittle": 431,
      "Ġour": 432,
      "Ġhow": 433,
      "Ġbl": 434,
      "Ġtim": 435,
      "Ġtoo": 436,
      "ord": 437,
      "Ġlike": 438,
      "ove": 439,
      "ick": 440,
      "ab": 441,
      "other": 442,
      "Ġsay": 443,
      "Ġsome": 444,
      "Ġshould": 445,
      "âĢĵ": 446,
      "Ġcl": 447,
      "pt": 448,
      "Ġvery": 449,
      "ass": 450,
      "are": 451,
      "Ġtw": 452,
      "The": 453,
      "Ġhand": 454,
      "ib": 455,
      "ud": 456,
      "Ġlittle": 457,
      "Ġen": 458,
      "Ġsee": 459,
      "ife": 460,
      "ence": 461,
      "Ġ'": 462,
      "Ġac": 463,
      "ies": 464,
      "Ġpr": 465,
      "urn": 466,
      "Ġupon": 467,
      "ree": 468,
      "Ġlook": 469,
      "Ġday": 470,
      "Ġhas": 471,
      "Ġlong": 472,
      "ĠAnd": 473,
      "ars": 474,
      "Ġdis": 475,
      "Ġgreat": 476,
      "ved": 477,
      "ady": 478,
      "ff": 479,
      "pl": 480,
      "Ġro": 481,
      "ne": 482,
      "ade": 483,
      "ings": 484,
      "ount": 485,
      "Ġother": 486,
      "Ġthen": 487,
      "ious": 488,
      "Ġmu": 489,
      "ond": 490,
      "ness": 491,
      "Ġim": 492,
      "ment": 493,
      "ally": 494,
      "Ġoff": 495,
      "ered": 496,
      "Ġonly": 497,
      "Ġbec": 498,
      "ull": 499,
      "Ġtime": 500,
      "Ġdown": 501,
      "Ġgood": 502,
      "Ġgr": 503,
      "Ġabout": 504,
      "Ġbefore": 505,
      "ĠâĢĺ": 506,
      "che": 507,
      "ves": 508,
      "Ġafter": 509,
      "Ġmen": 510,
      ",âĢĿ": 511,
      "ward": 512,
      "!\"": 513,
      "Ġper": 514,
      "ect": 515,
      "tain": 516,
      "age": 517,
      "Ġsm": 518,
      "Ġfl": 519,
      "Ġown": 520,
      "Ġthr": 521,
      "Ġpo": 522,
      "ue": 523,
      "ful": 524,
      "ang": 525,
      "be": 526,
      "ĠTh": 527,
      "Ġback": 528,
      "ise": 529,
      "ily": 530,
      "ouse": 531,
      "?âĢĿ": 532,
      "per": 533,
      "'t": 534,
      "Ġad": 535,
      "ire": 536,
      "Ġmust": 537,
      "ho": 538,
      "Ġcome": 539,
      "Ġpe": 540,
      "ress": 541,
      "ty": 542,
      "ĠJ": 543,
      "ile": 544,
      "Ġits": 545,
      "oy": 546,
      "ark": 547,
      "Ġsuch": 548,
      "Ġsc": 549,
      "man": 550,
      "bl": 551,
      "Ġpre": 552,
      "Ġey": 553,
      "ather": 554,
      "ever": 555,
      "ĠY": 556,
      "Ġevery": 557,
      "Ġhere": 558,
      "Ġunder": 559,
      "Ġeven": 560,
      "ip": 561,
      "Ġmuch": 562,
      "irst": 563,
      "ave": 564,
      "Ġnever": 565,
      "ild": 566,
      "te": 567,
      "Ġspe": 568,
      "ĠKim": 569,
      "ĠMr": 570,
      "iff": 571,
      "Ġmade": 572,
      "Ġthink": 573,
      "ted": 574,
      "Ġbet": 575,
      "Ġlife": 576,
      "Ġstr": 577,
      "Ġwell": 578,
      "Ġtwo": 579,
      "Ġco": 580,
      "Ġway": 581,
      "ĠR": 582,
      "the": 583,
      "Ġcame": 584,
      "Ġstill": 585,
      "Ġrem": 586,
      "orn": 587,
      "Ġmay": 588,
      "?\"": 589,
      "ated": 590,
      "Ġhimself": 591,
      "Ġmight": 592,
      "Ġsw": 593,
      "Ġdes": 594,
      "Ġwhere": 595,
      "llow": 596,
      "alk": 597,
      "ary": 598,
      "hing": 599,
      "ren": 600,
      "Ġfirst": 601,
      "Ġthese": 602,
      "av": 603,
      "Ġcr": 604,
      "ied": 605,
      "ried": 606,
      "led": 607,
      "iv": 608,
      "Ġthought": 609,
      "Ġcall": 610,
      "ew": 611,
      "ĠWe": 612,
      "Ġgl": 613,
      "Ġpart": 614,
      "ber": 615,
      "Ġaway": 616,
      "Ġyoung": 617,
      "oss": 618,
      "ĠZ": 619,
      "Ġho": 620,
      "Ġthose": 621,
      "Ġthy": 622,
      "Ġfo": 623,
      "Ġworld": 624,
      "Ġmost": 625,
      "ach": 626,
      "Ġshall": 627,
      "so": 628,
      "Ġthrough": 629,
      "ft": 630,
      "arath": 631,
      "ustra": 632,
      "arathustra": 633,
      "Ġmake": 634,
      "Ġhead": 635,
      "ions": 636,
      "Ġhouse": 637,
      "anc": 638,
      "ci": 639,
      "Ġget": 640,
      "Ġsl": 641,
      "Ġturn": 642,
      "ĠThere": 643,
      "Ġthee": 644,
      "ĠThey": 645,
      "Ġword": 646,
      "Ġwom": 647,
      "Ġbre": 648,
      "Ġask": 649,
      "less": 650,
      "act": 651,
      "ĠZarathustra": 652,
      "air": 653,
      "Ġheart": 654,
      "Ġpass": 655,
      "atter": 656,
      "Ġlast": 657,
      "Ġever": 658,
      "igh": 659,
      "Ġlet": 660,
      "Ġjust": 661,
      ".âĢĻ": 662,
      "Ġbel": 663,
      "Ġcar": 664,
      "Ġind": 665,
      "Ġcont": 666,
      "iss": 667,
      "ause": 668,
      "cl": 669,
      "ĠIn": 670,
      "Ġeyes": 671,
      "gg": 672,
      "oth": 673,
      "ign": 674,
      "ans": 675,
      "Ġseem": 676,
      "Ġte": 677,
      "Ġlove": 678,
      "Ġear": 679,
      "Ġres": 680,
      "Ġmany": 681,
      "Ġcomp": 682,
      "Ġacc": 683,
      "get": 684,
      "Ġimp": 685,
      "Ġ(": 686,
      "Ġwant": 687,
      "ways": 688,
      "ons": 689,
      "iend": 690,
      "ory": 691,
      "Ġmyself": 692,
      "les": 693,
      "irl": 694,
      "Ġonce": 695,
      "Ġser": 696,
      "Ġnew": 697,
      "Ġtake": 698,
      "Ġfriend": 699,
      "ened": 700,
      "Ġcons": 701,
      "ople": 702,
      "ix": 703,
      "ats": 704,
      "hap": 705,
      "Ġpres": 706,
      "pect": 707,
      "Ġface": 708,
      "thing": 709,
      "Ġop": 710,
      "Ġlo": 711,
      "Ġhowever": 712,
      "hen": 713,
      "ngl": 714,
      "Ġagainst": 715,
      "cc": 716,
      "Ġnight": 717,
      "aw": 718,
      "He": 719,
      "sel": 720,
      "ared": 721,
      "Ġalways": 722,
      "Ġthough": 723,
      "arm": 724,
      "ought": 725,
      "ĠEngl": 726,
      "Ġwr": 727,
      "ict": 728,
      "Ġpeople": 729,
      "we": 730,
      "iness": 731,
      "oment": 732,
      "ving": 733,
      "Ġke": 734,
      "Ġret": 735,
      "Ġent": 736,
      "Ġlam": 737,
      "It": 738,
      "Ġput": 739,
      "âĢĺ": 740,
      "Ġyet": 741,
      "ĠShe": 742,
      "Ġmoment": 743,
      "Ġalso": 744,
      "Ġgent": 745,
      "ub": 746,
      "Ġrec": 747,
      "Ġanother": 748,
      "ody": 749,
      "Ġhapp": 750,
      "ĠThen": 751,
      "Ġend": 752,
      "Ġwithout": 753,
      "Ġnothing": 754,
      "Ġchild": 755,
      "Ġgu": 756,
      "ss": 757,
      "ors": 758,
      "Ġyears": 759,
      "Ġev": 760,
      "Ġgirl": 761,
      "Ġcomm": 762,
      "by": 763,
      "der": 764,
      "Ġwent": 765,
      "Ġfound": 766,
      "und": 767,
      "aking": 768,
      "Ġap": 769,
      "Ġsom": 770,
      "ither": 771,
      "sh": 772,
      "Ġwat": 773,
      "Ġlau": 774,
      "mer": 775,
      "ible": 776,
      "Ġbeg": 777,
      "ool": 778,
      "ched": 779,
      "Ġdr": 780,
      "Ġtell": 781,
      "arn": 782,
      "Ġthings": 783,
      "ĠBr": 784,
      "ail": 785,
      "iz": 786,
      "ier": 787,
      "ase": 788,
      "Ġhalf": 789,
      "ock": 790,
      "zib": 791,
      "Ġcount": 792,
      "ange": 793,
      "Ġpers": 794,
      "zibah": 795,
      "Ġbo": 796,
      "Th": 797,
      "den": 798,
      "Ġgive": 799,
      "Ġwhom": 800,
      "ower": 801,
      "Ġrep": 802,
      "yn": 803,
      "Ġwoman": 804,
      "Ġlight": 805,
      "Ġob": 806,
      "Ġfar": 807,
      "ĠHep": 808,
      "ting": 809,
      "ĠHepzibah": 810,
      "ertain": 811,
      "Ġcour": 812,
      "Ġstre": 813,
      "Ġwhile": 814,
      "Ġreg": 815,
      "Ġdoor": 816,
      "for": 817,
      "ition": 818,
      "ince": 819,
      "ten": 820,
      "Ġhands": 821,
      "Ġbetter": 822,
      "iet": 823,
      "illy": 824,
      "Ġsaw": 825,
      "Ġatt": 826,
      "selves": 827,
      "You": 828,
      "ait": 829,
      "ĠV": 830,
      "here": 831,
      "Ġroom": 832,
      "Ġmatter": 833,
      "Ġsec": 834,
      "Ġmar": 835,
      "Ġgentle": 836,
      "!âĢĿ": 837,
      "Ġhard": 838,
      "most": 839,
      "Ġfind": 840,
      "Ġplay": 841,
      "Ġtook": 842,
      "Ġtalk": 843,
      "ank": 844,
      "Ġdist": 845,
      "Ġknew": 846,
      "Ġamong": 847,
      "Ġbecause": 848,
      "ĠBar": 849,
      "Ġlama": 850,
      "hy": 851,
      "ĠPyn": 852,
      "ĠPynche": 853,
      "uck": 854,
      "ĠAl": 855,
      "Ġbeh": 856,
      "ised": 857,
      "uth": 858,
      "Ġarm": 859,
      ",'": 860,
      "Ġnat": 861,
      "ished": 862,
      "Ġsmall": 863,
      "irit": 864,
      "Ġvo": 865,
      "Ġsou": 866,
      "ult": 867,
      "sw": 868,
      "Ġthree": 869,
      "Ġdisc": 870,
      "Ġhour": 871,
      "ross": 872,
      "Ġinst": 873,
      "Ġwind": 874,
      "wards": 875,
      "Ġboy": 876,
      "Ġheard": 877,
      "Ġleft": 878,
      "ner": 879,
      "ebe": 880,
      "Ġbest": 881,
      "Ġple": 882,
      "Ġlooked": 883,
      "Ġfew": 884,
      "Ġplace": 885,
      "hoebe": 886,
      "ĠU": 887,
      "owed": 888,
      "gether": 889,
      "What": 890,
      "Ġright": 891,
      "Ġsil": 892,
      "Ġhath": 893,
      "ĠAs": 894,
      "ĠThis": 895,
      "ĠYou": 896,
      "And": 897,
      "Ġmother": 898,
      "Ġche": 899,
      "Ġdays": 900,
      "int": 901,
      "Ġfeel": 902,
      "ething": 903,
      "Ġspeak": 904,
      "Ġhum": 905,
      "ens": 906,
      "Ġsame": 907,
      "Ġdep": 908,
      "But": 909,
      "Ġtold": 910,
      "ĠGod": 911,
      "Ġcur": 912,
      "Ġposs": 913,
      "ĠWhat": 914,
      "ĠPhoebe": 915,
      "aken": 916,
      "yr": 917,
      "Ġdre": 918,
      "Ġart": 919,
      "ĠBilly": 920,
      "ĠPyncheon": 921,
      "Ġbeing": 922,
      "pped": 923,
      "Ġspirit": 924,
      "Ġpresent": 925,
      "cess": 926,
      "oon": 927,
      "Ġside": 928,
      "Ġsupp": 929,
      "Ġwork": 930,
      "ined": 931,
      "Ġkind": 932,
      "Ġenough": 933,
      "og": 934,
      "Ġfam": 935,
      "Ġdon": 936,
      "ĠWhen": 937,
      "ung": 938,
      "Ġpoor": 939,
      "Ġitself": 940,
      "ĠFor": 941,
      "Ġturned": 942,
      "Ġset": 943,
      "Ġcle": 944,
      "Ġgra": 945,
      ",âĢĻ": 946,
      "Ġstand": 947,
      "ĠCl": 948,
      "ern": 949,
      "ute": 950,
      "Ġbecome": 951,
      "Ġbelie": 952,
      "ĠThat": 953,
      "Ġfellow": 954,
      ".'": 955,
      "Ġmind": 956,
      "Ġem": 957,
      "ps": 958,
      "ual": 959,
      "Ġcou": 960,
      "Ġpur": 961,
      "Ġseemed": 962,
      "Ġbehind": 963,
      "Ġgot": 964,
      "ĠCh": 965,
      "aid": 966,
      "bt": 967,
      "Ġdone": 968,
      "cept": 969,
      "Ġreturn": 970,
      "not": 971,
      "ple": 972,
      "Ġter": 973,
      "Ġact": 974,
      "Ġsomething": 975,
      "lt": 976,
      "med": 977,
      "Ġapp": 978,
      "ĠSah": 979,
      "aut": 980,
      "ret": 981,
      "Ġdou": 982,
      "Ġansw": 983,
      "haps": 984,
      "Ġhear": 985,
      "ont": 986,
      "ows": 987,
      "men": 988,
      "Ġunto": 989,
      "ere": 990,
      "Ġint": 991,
      "Ġname": 992,
      "Ġel": 993,
      "Ġfather": 994,
      "ident": 995,
      "Ġins": 996,
      "ĠAt": 997,
      "Ġadv": 998,
      "Ġthing": 999,
      "Ġaff": 1000,
      "ener": 1001,
      "oney": 1002,
      "ifford": 1003,
      "xt": 1004,
      "Ġhor": 1005,
      "Ġdra": 1006,
      "Ġsure": 1007,
      "Ġsoul": 1008,
      "'ll": 1009,
      "ĠSt": 1010,
      "Ġalmost": 1011,
      "ĠSahib": 1012,
      "Ġcried": 1013,
      "Ġappe": 1014,
      "Ġfull": 1015,
      "Ġocc": 1016,
      "Ġhome": 1017,
      "Ġround": 1018,
      "Ġchar": 1019,
      "Ġasked": 1020,
      "Ġopen": 1021,
      "ling": 1022,
      "Ġconf": 1023,
      "Ġquite": 1024,
      "Ġcalled": 1025,
      "ced": 1026,
      "well": 1027,
      "Ġmorn": 1028,
      "Ġthus": 1029,
      "Ġdel": 1030,
      "Ġfollow": 1031,
      "ired": 1032,
      "Ġaw": 1033,
      "att": 1034,
      "Ġseen": 1035,
      "hes": 1036,
      "Ġhon": 1037,
      "urd": 1038,
      "ĠEnglish": 1039,
      "Ġvoice": 1040,
      "ĠClifford": 1041,
      "iver": 1042,
      "ru": 1043,
      "Ġwords": 1044,
      "ian": 1045,
      "Ġdiff": 1046,
      "Ġdead": 1047,
      "Ġbro": 1048,
      "Ġass": 1049,
      "Ġneed": 1050,
      "atsby": 1051,
      "eed": 1052,
      "aster": 1053,
      "irt": 1054,
      "ween": 1055,
      "Ġrun": 1056,
      "Ġperson": 1057,
      "ĠIf": 1058,
      "ĠHis": 1059,
      "Ġsat": 1060,
      "Ġsle": 1061,
      "Ġwhite": 1062,
      "Ġsays": 1063,
      "Ġsur": 1064,
      "Ġcertain": 1065,
      "Ġgi": 1066,
      "az": 1067,
      "Ġfore": 1068,
      "als": 1069,
      "Ġmorning": 1070,
      "ken": 1071,
      "Ġwait": 1072,
      "udge": 1073,
      "Ġgre": 1074,
      "Ġcourse": 1075,
      "Ġdark": 1076,
      "aught": 1077,
      "Ġsent": 1078,
      "cle": 1079,
      "Ġinter": 1080,
      "Ġpleas": 1081,
      "Ġbrought": 1082,
      "ject": 1083,
      "ĠOn": 1084,
      "Ġbetween": 1085,
      "row": 1086,
      "ready": 1087,
      "Ġmon": 1088,
      "Ġsun": 1089,
      "ures": 1090,
      "ations": 1091,
      "Ġinte": 1092,
      "Ġrest": 1093,
      "ĠGatsby": 1094,
      "Ġfall": 1095,
      "herie": 1096,
      "yrne": 1097,
      "any": 1098,
      "arding": 1099,
      "aptain": 1100,
      "heriere": 1101,
      "ash": 1102,
      "Ġhel": 1103,
      "Ġwhole": 1104,
      "Ġtruth": 1105,
      "We": 1106,
      "up": 1107,
      "Ġpri": 1108,
      "Ġones": 1109,
      "Ġhigh": 1110,
      "oud": 1111,
      "Ġread": 1112,
      "ĠMah": 1113,
      "Ġdeath": 1114,
      "Ġtre": 1115,
      "iment": 1116,
      "Ġmin": 1117,
      "Ġmoney": 1118,
      "ĠTH": 1119,
      "ĠNow": 1120,
      "Ġcannot": 1121,
      "Ġunderst": 1122,
      "bub": 1123,
      "oke": 1124,
      "Ġrel": 1125,
      "ters": 1126,
      "ĠByrne": 1127,
      "Ġsoon": 1128,
      "Ġkeep": 1129,
      "ating": 1130,
      "ular": 1131,
      "ably": 1132,
      "ale": 1133,
      "Ġsince": 1134,
      "ek": 1135,
      "ering": 1136,
      "Ġcare": 1137,
      "Ġver": 1138,
      "Ġgave": 1139,
      "ĠTheriere": 1140,
      "..": 1141,
      "ubl": 1142,
      "ĠMy": 1143,
      "Ġdoes": 1144,
      "ully": 1145,
      "ins": 1146,
      "Ġnor": 1147,
      "Ġmean": 1148,
      "ĠSo": 1149,
      "Ġunt": 1150,
      "Ġsub": 1151,
      "Ġalready": 1152,
      "Ġperhaps": 1153,
      "ning": 1154,
      "Ġsk": 1155,
      "Ġinv": 1156,
      "ĠJack": 1157,
      "Ġref": 1158,
      "Ġmine": 1159,
      "Ġsuff": 1160,
      "Ġlay": 1161,
      "Ġste": 1162,
      "Ġdev": 1163,
      "ĠLy": 1164,
      "Ġlearn": 1165,
      "Ġearth": 1166,
      "?âĢĻ": 1167,
      "ial": 1168,
      "ately": 1169,
      "day": 1170,
      "ee": 1171,
      "ited": 1172,
      "Ġtogether": 1173,
      "Ġorder": 1174,
      "Ġcountry": 1175,
      "ently": 1176,
      "Ġgoing": 1177,
      "ĠLynd": 1178,
      "Ġbad": 1179,
      "Ġserv": 1180,
      "Ġgone": 1181,
      "Ġeff": 1182,
      "Ġnear": 1183,
      "Ġnext": 1184,
      "Ġexp": 1185,
      "Ġdoubt": 1186,
      "iod": 1187,
      "its": 1188,
      "Ġlady": 1189,
      "ason": 1190,
      "Ġdeep": 1191,
      "Ġalone": 1192,
      "ĠOne": 1193,
      "ĠLyndon": 1194,
      "ains": 1195,
      "ĠMahbub": 1196,
      "Ġrather": 1197,
      "empt": 1198,
      "ph": 1199,
      "ara": 1200,
      "Ġlaw": 1201,
      "That": 1202,
      "Ġwar": 1203,
      "undred": 1204,
      "Ġgentleman": 1205,
      "ained": 1206,
      "Ġthemselves": 1207,
      "Ġoffic": 1208,
      "dden": 1209,
      "Ġwalk": 1210,
      "Ġmis": 1211,
      "vel": 1212,
      "Ġblack": 1213,
      "uff": 1214,
      "nded": 1215,
      "Ġpower": 1216,
      "Ġbeaut": 1217,
      "ras": 1218,
      "rest": 1219,
      "ĠPr": 1220,
      "me": 1221,
      "Ġ1": 1222,
      "Ġhast": 1223,
      "Ġinc": 1224,
      "over": 1225,
      "onder": 1226,
      "Ġdet": 1227,
      "Ġquest": 1228,
      "ms": 1229,
      "Ġpol": 1230,
      "Ġuntil": 1231,
      "Ġbus": 1232,
      "ets": 1233,
      "Ġfeet": 1234,
      "Ġprom": 1235,
      "Ġsn": 1236,
      "Ġhundred": 1237,
      "Ġwhose": 1238,
      "Ġfelt": 1239,
      "li": 1240,
      "land": 1241,
      "Ġes": 1242,
      "Ġtra": 1243,
      "enc": 1244,
      "Ġalong": 1245,
      "Ġused": 1246,
      "Ġacross": 1247,
      "Ġeverything": 1248,
      "ured": 1249,
      "Ġhig": 1250,
      "Ġabove": 1251,
      "ĠTo": 1252,
      "Ġleast": 1253,
      "anger": 1254,
      "Ġswe": 1255,
      "ged": 1256,
      "Ġremem": 1257,
      "ais": 1258,
      "fully": 1259,
      "ime": 1260,
      "Ġlive": 1261,
      "osed": 1262,
      "ny": 1263,
      "ense": 1264,
      "ey": 1265,
      "aring": 1266,
      "aint": 1267,
      "Ġaround": 1268,
      "Ġlonger": 1269,
      "Ġeye": 1270,
      "Ġindeed": 1271,
      "ixed": 1272,
      "Well": 1273,
      "Ġinf": 1274,
      "bed": 1275,
      "fort": 1276,
      "ery": 1277,
      "Ġmo": 1278,
      "Ġsudden": 1279,
      "ued": 1280,
      "Ġoften": 1281,
      "ĠHarding": 1282,
      "ĠAll": 1283,
      "Ġbelieve": 1284,
      "Ġwife": 1285,
      "Ġgener": 1286,
      "ilt": 1287,
      "ĠLady": 1288,
      "Ġsim": 1289,
      "ical": 1290,
      "uring": 1291,
      "ments": 1292,
      "Ġhope": 1293,
      "Ġhuman": 1294,
      "Ġpar": 1295,
      "Ġvis": 1296,
      "Ġlaugh": 1297,
      "Ġheav": 1298,
      "ually": 1299,
      "Ġbed": 1300,
      "ĠLord": 1301,
      "ying": 1302,
      "Ġide": 1303,
      "Ġbes": 1304,
      "Ġfact": 1305,
      "ches": 1306,
      "com": 1307,
      "Ġtaken": 1308,
      "Ġblood": 1309,
      "Ġhold": 1310,
      "Ġwithin": 1311,
      "amp": 1312,
      "ĠMc": 1313,
      "Ġleave": 1314,
      "Ġopp": 1315,
      "ater": 1316,
      "Ġlie": 1317,
      "Ġstood": 1318,
      "Ġanything": 1319,
      "Ġevil": 1320,
      "Ġsleep": 1321,
      "Ġson": 1322,
      "Ġbody": 1323,
      "aces": 1324,
      "Ġadd": 1325,
      "Ġuse": 1326,
      "Ġsing": 1327,
      "Ġpassed": 1328,
      "weller": 1329,
      "Ġland": 1330,
      "Ġherself": 1331,
      "Ġwater": 1332,
      "Ġexpl": 1333,
      "Ġroad": 1334,
      "Ġair": 1335,
      "Ġwis": 1336,
      "ene": 1337,
      "illed": 1338,
      "rasweller": 1339,
      "Ġpast": 1340,
      "Ġvirt": 1341,
      "Ġcontin": 1342,
      "Ġeach": 1343,
      "Ġwhy": 1344,
      "ĠHow": 1345,
      "Ġfamily": 1346,
      "Ġgiven": 1347,
      "zs": 1348,
      "Ġwhether": 1349,
      "ison": 1350,
      "ĠBrit": 1351,
      "Ġhelp": 1352,
      "ony": 1353,
      "akes": 1354,
      "ĠNo": 1355,
      "outh": 1356,
      "ents": 1357,
      "ousand": 1358,
      "rench": 1359,
      "ĠBarry": 1360,
      "Ġunderstand": 1361,
      "Ġfin": 1362,
      "Ġcre": 1363,
      "ingly": 1364,
      "ann": 1365,
      "Ġless": 1366,
      "Ġbring": 1367,
      "ship": 1368,
      "but": 1369,
      "Ġlost": 1370,
      "Ġclose": 1371,
      "mb": 1372,
      "Ġtill": 1373,
      "Ġfront": 1374,
      "Ġfear": 1375,
      "Ġelse": 1376,
      "val": 1377,
      "ĠCrasweller": 1378,
      "ances": 1379,
      "Ġfour": 1380,
      "Ġthousand": 1381,
      "Ġknown": 1382,
      "ages": 1383,
      "fter": 1384,
      "Ġbur": 1385,
      "ĠHol": 1386,
      "Ġjo": 1387,
      "body": 1388,
      "Ġboth": 1389,
      "ister": 1390,
      "Ġdro": 1391,
      "Ġele": 1392,
      "ction": 1393,
      "Ġstrange": 1394,
      "Ġanswered": 1395,
      "aven": 1396,
      "br": 1397,
      "ates": 1398,
      "ities": 1399,
      "Ġwhis": 1400,
      "Ġbrother": 1401,
      "There": 1402,
      "Ġpoint": 1403,
      "Ġbegan": 1404,
      "No": 1405,
      "dom": 1406,
      "mes": 1407,
      "Ġbar": 1408,
      "Ġfire": 1409,
      "Ġtowards": 1410,
      "ĠCaptain": 1411,
      "Ġsecond": 1412,
      "aim": 1413,
      "Ġbu": 1414,
      "Ġfool": 1415,
      "Ġru": 1416,
      "ush": 1417,
      "onel": 1418,
      "ude": 1419,
      "Ġstrong": 1420,
      "ia": 1421,
      "Ġfa": 1422,
      "Ġcreat": 1423,
      "rie": 1424,
      "ĠWith": 1425,
      "Ġtrue": 1426,
      "Ġquick": 1427,
      "oc": 1428,
      "ror": 1429,
      "Ġill": 1430,
      "enty": 1431,
      "ider": 1432,
      "Ġred": 1433,
      "ĠMiss": 1434,
      "unt": 1435,
      "Ġtimes": 1436,
      "ĠEngland": 1437,
      "Ġfig": 1438,
      "ĠPer": 1439,
      "cker": 1440,
      "ressed": 1441,
      "Ġsold": 1442,
      "Ġwomen": 1443,
      "Ġfriends": 1444,
      "osition": 1445,
      "Ġyear": 1446,
      "Ġfur": 1447,
      "ceed": 1448,
      "ĠEv": 1449,
      "aisy": 1450,
      "ues": 1451,
      "Ġcond": 1452,
      "Ġpat": 1453,
      "ils": 1454,
      "hold": 1455,
      "Ġcharac": 1456,
      "bara": 1457,
      "lan": 1458,
      "Ġmad": 1459,
      "Ġtown": 1460,
      "Ġshow": 1461,
      "ants": 1462,
      "ĠTHE": 1463,
      "Ġcol": 1464,
      "Ġcap": 1465,
      "Ġtoward": 1466,
      "Ġdoth": 1467,
      "ĠSe": 1468,
      "Ġprop": 1469,
      "Ġproper": 1470,
      "Ġacqu": 1471,
      "Ġmucker": 1472,
      "uss": 1473,
      "used": 1474,
      "hapter": 1475,
      "Ġtable": 1476,
      "Ġsit": 1477,
      "Ġeas": 1478,
      "iful": 1479,
      "Ġfoot": 1480,
      "Ġquestion": 1481,
      "ience": 1482,
      "Ġevening": 1483,
      "Ġcoll": 1484,
      "Ġhorse": 1485,
      "Ġbusiness": 1486,
      "rom": 1487,
      "ught": 1488,
      "Ġ*": 1489,
      "Ġten": 1490,
      "Ġmeans": 1491,
      "ility": 1492,
      "Ġdear": 1493,
      "Ġwonder": 1494,
      "Ġbit": 1495,
      "ooks": 1496,
      "Ġdream": 1497,
      "!'": 1498,
      "yond": 1499,
      "Ġrepl": 1500,
      "ird": 1501,
      "ief": 1502,
      "'m": 1503,
      "oly": 1504,
      "Ġtri": 1505,
      "Ġstart": 1506,
      "iled": 1507,
      "Ġleg": 1508,
      "Ġaccount": 1509,
      "Ġwindow": 1510,
      "Ġwon": 1511,
      "Ġsign": 1512,
      "Ġshort": 1513,
      "Ġsum": 1514,
      "Ġdec": 1515,
      "ield": 1516,
      "Ġest": 1517,
      "lled": 1518,
      "Ġbeyond": 1519,
      "ality": 1520,
      "Ġmere": 1521,
      "Ġnecess": 1522,
      "Ġprof": 1523,
      "iously": 1524,
      "Ġadm": 1525,
      "Ġbig": 1526,
      "vers": 1527,
      "Ġext": 1528,
      "Ġabs": 1529,
      "Ġbreak": 1530,
      "ipp": 1531,
      "Ġsy": 1532,
      "Ġsound": 1533,
      "Ġcir": 1534,
      "Ġshad": 1535,
      "itting": 1536,
      "ĠNor": 1537,
      "Ġothers": 1538,
      "ĠBarbara": 1539,
      "),": 1540,
      "ape": 1541,
      "Ġwild": 1542,
      "Ġlad": 1543,
      "alth": 1544,
      "ĠMrs": 1545,
      "side": 1546,
      "atch": 1547,
      "Ġpay": 1548,
      "ĠTom": 1549,
      "ĠCol": 1550,
      "ĠKat": 1551,
      "Ġseek": 1552,
      "Ġcarry": 1553,
      "ietzs": 1554,
      "ietzsche": 1555,
      "fe": 1556,
      "ton": 1557,
      "Ġsqu": 1558,
      "Ġmod": 1559,
      "Ġrece": 1560,
      "Ġforg": 1561,
      "Ġang": 1562,
      "ached": 1563,
      "Ġcomes": 1564,
      "Ġcoming": 1565,
      "Ġlooking": 1566,
      "Ġbecame": 1567,
      "Murd": 1568,
      "pr": 1569,
      "ug": 1570,
      "Ġmount": 1571,
      "Ġcor": 1572,
      "Ġra": 1573,
      "Ġval": 1574,
      "ham": 1575,
      "eng": 1576,
      "ots": 1577,
      "tern": 1578,
      "that": 1579,
      "ĠFrench": 1580,
      "ĠNietzsche": 1581,
      "Ġground": 1582,
      "Ġheavy": 1583,
      "Ġmur": 1584,
      "Ġpap": 1585,
      "ĠRed": 1586,
      "Murdo": 1587,
      "gl": 1588,
      "ards": 1589,
      "Ġpurp": 1590,
      "ublic": 1591,
      "?'": 1592,
      "ax": 1593,
      "Ġjudge": 1594,
      "ĠDaisy": 1595,
      "Ġclear": 1596,
      "Ġcharacter": 1597,
      "cri": 1598,
      "Ġlar": 1599,
      "ĠeB": 1600,
      "Ġstep": 1601,
      "Ġgold": 1602,
      "Ġmonth": 1603,
      "erm": 1604,
      "Ġmet": 1605,
      "Ġdri": 1606,
      "ific": 1607,
      "iew": 1608,
      "ables": 1609,
      "ls": 1610,
      "of": 1611,
      "uch": 1612,
      "Ġdanger": 1613,
      "Ġlow": 1614,
      "Ġhaving": 1615,
      "ety": 1616,
      "Ġreason": 1617,
      "Ġdeal": 1618,
      "gr": 1619,
      "Ġfree": 1620,
      "Ġmeet": 1621,
      "ift": 1622,
      "ousin": 1623,
      "Ġquiet": 1624,
      "ĠYe": 1625,
      "rence": 1626,
      "Ġpossess": 1627,
      "Ġir": 1628,
      "Ġsix": 1629,
      "Ġmouth": 1630,
      "ention": 1631,
      "Ġreal": 1632,
      "Ġspake": 1633,
      "Ġcold": 1634,
      "'ve": 1635,
      "app": 1636,
      "co": 1637,
      "use": 1638,
      "Ġmer": 1639,
      "Ġvill": 1640,
      "Ġord": 1641,
      "icked": 1642,
      "Ġrespect": 1643,
      "Ġhonour": 1644,
      "Ġinterest": 1645,
      "str": 1646,
      "Ġfell": 1647,
      "Ġtrou": 1648,
      "Ġremember": 1649,
      "Ġsort": 1650,
      "Ġmil": 1651,
      "ides": 1652,
      "Ġchildren": 1653,
      "form": 1654,
      "ived": 1655,
      "Ġed": 1656,
      "Ġage": 1657,
      "Ġpain": 1658,
      "Ġreplied": 1659,
      "Oh": 1660,
      "gan": 1661,
      "ient": 1662,
      "Ġcut": 1663,
      "riage": 1664,
      "Ġletter": 1665,
      "Ġhigher": 1666,
      "ĠEva": 1667,
      "fect": 1668,
      "iar": 1669,
      "ives": 1670,
      "Ġtou": 1671,
      "Ġfav": 1672,
      "ones": 1673,
      "arch": 1674,
      "ĠIs": 1675,
      "Ġexcept": 1676,
      "ĠThou": 1677,
      "ec": 1678,
      "wise": 1679,
      "aced": 1680,
      "ĠSir": 1681,
      "une": 1682,
      "Ġworth": 1683,
      "Ġspr": 1684,
      "Ġago": 1685,
      "Ġgrow": 1686,
      "Ġpret": 1687,
      "wh": 1688,
      "ĠHere": 1689,
      "ĠNot": 1690,
      "Ġsecret": 1691,
      "Ġhardly": 1692,
      "Ġdraw": 1693,
      "ghed": 1694,
      "ĠX": 1695,
      "ills": 1696,
      "rage": 1697,
      "Ġdesp": 1698,
      "Ġve": 1699,
      "Ġmid": 1700,
      "Ġgard": 1701,
      "Ġdem": 1702,
      "rave": 1703,
      "Ġenem": 1704,
      "Ġidea": 1705,
      "ald": 1706,
      "Ġmaking": 1707,
      "Ġheld": 1708,
      "ott": 1709,
      "Ġready": 1710,
      "Ġself": 1711,
      "Ġtherefore": 1712,
      "ĠFixed": 1713,
      "They": 1714,
      "ression": 1715,
      "airs": 1716,
      "oor": 1717,
      "where": 1718,
      "orm": 1719,
      "Ġpict": 1720,
      "Ġyell": 1721,
      "alf": 1722,
      "Ġweek": 1723,
      "Ġremark": 1724,
      "ledge": 1725,
      "sp": 1726,
      "pered": 1727,
      "Ġlead": 1728,
      "ĠNever": 1729,
      "ashion": 1730,
      "Ġbeside": 1731,
      "awn": 1732,
      "cious": 1733,
      "la": 1734,
      "Ġwound": 1735,
      "nding": 1736,
      "Ġcity": 1737,
      "ask": 1738,
      "imes": 1739,
      "Ġforth": 1740,
      "bled": 1741,
      "Ġdrink": 1742,
      "Ġwish": 1743,
      "Ġhur": 1744,
      "Ġph": 1745,
      "ushed": 1746,
      "Ġconc": 1747,
      "ump": 1748,
      "Ġquar": 1749,
      "anged": 1750,
      "Ġcompany": 1751,
      "Ġkept": 1752,
      "Ġdepart": 1753,
      "ĠPeriod": 1754,
      "ĠColonel": 1755,
      "ices": 1756,
      "rig": 1757,
      "Ġdiffic": 1758,
      "uc": 1759,
      "reed": 1760,
      "ative": 1761,
      "Ġcorn": 1762,
      "Ġcase": 1763,
      "Ġshop": 1764,
      "ously": 1765,
      "ĠGreat": 1766,
      "Then": 1767,
      "ĠThus": 1768,
      "Ġconsider": 1769,
      "Ġsad": 1770,
      "Ġfive": 1771,
      "orrow": 1772,
      "Ġbegin": 1773,
      "Ġobs": 1774,
      "now": 1775,
      "ĠQ": 1776,
      "Ġable": 1777,
      "Ġmaster": 1778,
      "Ġfight": 1779,
      "Ġstory": 1780,
      "Ġtrans": 1781,
      "Ġappear": 1782,
      "Ġpriest": 1783,
      "Yes": 1784,
      "rew": 1785,
      "Ġduring": 1786,
      "Ġpie": 1787,
      "Ġstate": 1788,
      "ĠChapter": 1789,
      "Ġslow": 1790,
      "Ġbreath": 1791,
      "Ġcarried": 1792,
      "Ġentire": 1793,
      "rist": 1794,
      "Ġwatch": 1795,
      "Ġesc": 1796,
      "Ġpurpose": 1797,
      "'d": 1798,
      "Ġmark": 1799,
      "Ġcast": 1800,
      "ented": 1801,
      "Ġann": 1802,
      "Ġanim": 1803,
      "ĠBe": 1804,
      "ĠDo": 1805,
      "Ġsuddenly": 1806,
      "RE": 1807,
      "Ġtry": 1808,
      "urch": 1809,
      "ĠAfter": 1810,
      "Ġsucc": 1811,
      "rible": 1812,
      "cted": 1813,
      "like": 1814,
      "aj": 1815,
      "ope": 1816,
      "you": 1817,
      "Ġut": 1818,
      "Ġfing": 1819,
      "lly": 1820,
      "asion": 1821,
      "itted": 1822,
      "Ġaccom": 1823,
      "Ġpossible": 1824,
      "light": 1825,
      "Ġmove": 1826,
      "Ġcent": 1827,
      "erent": 1828,
      "attle": 1829,
      "ugg": 1830,
      "erv": 1831,
      "Ġlist": 1832,
      "Ġnone": 1833,
      "owd": 1834,
      "ided": 1835,
      "Ġuncle": 1836,
      "Ġexc": 1837,
      "Ġbless": 1838,
      "inct": 1839,
      "ĠHouse": 1840,
      "ustom": 1841,
      "ĠLet": 1842,
      "Ġsmile": 1843,
      "Ġlaughed": 1844,
      "Ġstreet": 1845,
      "Ġhours": 1846,
      "Ġfigure": 1847,
      "zen": 1848,
      "hest": 1849,
      "Ġwall": 1850,
      "Ġeither": 1851,
      "Ġweak": 1852,
      "Ġarri": 1853,
      "Ġhappiness": 1854,
      "Ġguard": 1855,
      "ĠMcMurdo": 1856,
      "eal": 1857,
      "Ġfair": 1858,
      "Ġcry": 1859,
      "Ġbegg": 1860,
      "utes": 1861,
      "Ġregard": 1862,
      "Ġvirtue": 1863,
      "Ġlarge": 1864,
      "ces": 1865,
      "cum": 1866,
      "ked": 1867,
      "Ġrid": 1868,
      "raw": 1869,
      "Ġexist": 1870,
      "âĢĶâĢĶ": 1871,
      "Ġnature": 1872,
      "medi": 1873,
      "ĠBritann": 1874,
      "Ġgarden": 1875,
      "If": 1876,
      "Ġwarm": 1877,
      "ĠInd": 1878,
      "Ġforward": 1879,
      "Ġsea": 1880,
      "overed": 1881,
      "Ġsword": 1882,
      "Ġcommon": 1883,
      "Thus": 1884,
      "Ġnatur": 1885,
      "ogn": 1886,
      "Ġeffect": 1887,
      "Ġpretty": 1888,
      "ĠBritannul": 1889,
      "joy": 1890,
      "oom": 1891,
      "Ġsir": 1892,
      "oun": 1893,
      "Ġbear": 1894,
      "Ġrequ": 1895,
      "Ġinstant": 1896,
      "Ġbeautiful": 1897,
      "Ġwisdom": 1898,
      "Ġnecessary": 1899,
      "Ġtem": 1900,
      "Ġmist": 1901,
      "Ġtor": 1902,
      "Ġlater": 1903,
      "ĠAn": 1904,
      "ĠSim": 1905,
      "Ġexper": 1906,
      "els": 1907,
      "This": 1908,
      "Ġshadow": 1909,
      "She": 1910,
      "Ġsight": 1911,
      "Ġfashion": 1912,
      "Ġdin": 1913,
      "Ġline": 1914,
      "Ġfort": 1915,
      "Ġexpect": 1916,
      "Ġspo": 1917,
      "Ġarms": 1918,
      "Ġreturned": 1919,
      "Ġwit": 1920,
      "aded": 1921,
      "Ġfright": 1922,
      "atever": 1923,
      "ection": 1924,
      "Ġprep": 1925,
      "ks": 1926,
      "Ġtaking": 1927,
      "Ġsch": 1928,
      "Ġmag": 1929,
      "Ġpublic": 1930,
      "aden": 1931,
      "Ġchance": 1932,
      "Ġdidn": 1933,
      "Ġperfect": 1934,
      "Ġcrowd": 1935,
      "How": 1936,
      "bo": 1937,
      "bs": 1938,
      "dd": 1939,
      "ines": 1940,
      "inted": 1941,
      "Ġsal": 1942,
      "ert": 1943,
      "Ġgun": 1944,
      "Ġyes": 1945,
      "Ġyouth": 1946,
      "irty": 1947,
      "Ġsho": 1948,
      "Ġsol": 1949,
      "itten": 1950,
      "Ġgoes": 1951,
      "ivine": 1952,
      "Ġrecogn": 1953,
      "Ġobject": 1954,
      "Ġregiment": 1955,
      "Ġgrand": 1956,
      "ĠHolmes": 1957,
      "II": 1958,
      "what": 1959,
      "Ġfat": 1960,
      "Ġcousin": 1961,
      "etimes": 1962,
      "Ġcomfort": 1963,
      "Ġdesire": 1964,
      "Ġanswer": 1965,
      "go": 1966,
      "vol": 1967,
      "Ġsense": 1968,
      "read": 1969,
      "ism": 1970,
      "ane": 1971,
      "ster": 1972,
      "Ġeat": 1973,
      "room": 1974,
      "Ġsoci": 1975,
      "Ġmanner": 1976,
      "Ġjoy": 1977,
      "Ġthoughts": 1978,
      "ized": 1979,
      "Ġsuppose": 1980,
      "ead": 1981,
      "Ġsick": 1982,
      "oured": 1983,
      "Ġfif": 1984,
      "idence": 1985,
      "Ġsoft": 1986,
      "ney": 1987,
      "Ġhappened": 1988,
      "Ġbene": 1989,
      "Ġdecl": 1990,
      "Ġtwenty": 1991,
      "ighb": 1992,
      "Ġloved": 1993,
      "ĠBrady": 1994,
      "Ġsilent": 1995,
      "Ġforgot": 1996,
      "Ġmed": 1997,
      "Ġdire": 1998,
      "raid": 1999,
      "Ġservice": 2000,
      "night": 2001,
      "uous": 2002,
      "Ġwin": 2003,
      "asp": 2004,
      "ased": 2005,
      "ote": 2006,
      "ĠNew": 2007,
      "Ġarr": 2008,
      "Ġknows": 2009,
      "bling": 2010,
      "aving": 2011,
      "Ġcompan": 2012,
      "Ġhappy": 2013,
      "Ġattempt": 2014,
      "Ġdelight": 2015,
      "Ġsweet": 2016,
      "AT": 2017,
      "rit": 2018,
      "Ġought": 2019,
      "Ġca": 2020,
      "Ġform": 2021,
      "Ġforget": 2022,
      "Ġrose": 2023,
      "oof": 2024,
      "ĠHer": 2025,
      "Ġsake": 2026,
      "Ġlived": 2027,
      "anced": 2028,
      "Ġpriv": 2029,
      "Ġofficer": 2030,
      "Ġdeterm": 2031,
      "ĠQu": 2032,
      "Do": 2033,
      "My": 2034,
      "Ġfood": 2035,
      "umb": 2036,
      "udd": 2037,
      "cially": 2038,
      "Ġstreng": 2039,
      "Ġoccasion": 2040,
      "Ġcontinued": 2041,
      "hood": 2042,
      "with": 2043,
      "Ġdest": 2044,
      "though": 2045,
      "Ġneighb": 2046,
      "Ġview": 2047,
      "Ġimmedi": 2048,
      "ize": 2049,
      "ĠUn": 2050,
      "ĠChrist": 2051,
      "Ġfollowed": 2052,
      "aughter": 2053,
      "Ġlearned": 2054,
      "Ġsoldier": 2055,
      "Ġce": 2056,
      "ries": 2057,
      "usion": 2058,
      "Ġspoke": 2059,
      "Ġknowledge": 2060,
      "Ġglad": 2061,
      "Ġstri": 2062,
      "Ġchair": 2063,
      "Ġchange": 2064,
      "Ġdifferent": 2065,
      "Ġwhispered": 2066,
      "eness": 2067,
      "arr": 2068,
      "Ġinn": 2069,
      "owing": 2070,
      "ston": 2071,
      "Ġequ": 2072,
      "Ġstay": 2073,
      "oose": 2074,
      "ames": 2075,
      "Ġshot": 2076,
      "ĠWhy": 2077,
      "together": 2078,
      "umber": 2079,
      "Ġcompl": 2080,
      "aule": 2081,
      "Ġearly": 2082,
      "ĠAli": 2083,
      "Ġbroken": 2084,
      "wor": 2085,
      "Ġhat": 2086,
      "Ġcow": 2087,
      "Ġcal": 2088,
      "Ġport": 2089,
      "aste": 2090,
      "astle": 2091,
      "aged": 2092,
      "Ġimag": 2093,
      "Ġafterwards": 2094,
      "iving": 2095,
      "Ġfeeling": 2096,
      "Ġfurther": 2097,
      "Ġconcern": 2098,
      "Why": 2099,
      "du": 2100,
      "ex": 2101,
      "Ġwise": 2102,
      "itude": 2103,
      "Ġbeat": 2104,
      "Ġwhatever": 2105,
      "Ġran": 2106,
      "ĠBull": 2107,
      "Ġunc": 2108,
      "Ġprob": 2109,
      "Ġbecom": 2110,
      "Ġparty": 2111,
      "Ġmerely": 2112,
      "ER": 2113,
      "Not": 2114,
      "ai": 2115,
      "band": 2116,
      "rs": 2117,
      "Ġhus": 2118,
      "ougl": 2119,
      "Ġbound": 2120,
      "Ġfine": 2121,
      "Ġpost": 2122,
      "Ġreally": 2123,
      "acy": 2124,
      "Ġallowed": 2125,
      "ĠCount": 2126,
      "Ġshell": 2127,
      "Ġprev": 2128,
      "Ġgreen": 2129,
      "Ġsuccess": 2130,
      "Ġstrength": 2131,
      "cul": 2132,
      "Ġsin": 2133,
      "Ġhot": 2134,
      "Ġhid": 2135,
      "ising": 2136,
      "Ġdie": 2137,
      "Ġpop": 2138,
      "Ġpull": 2139,
      "Ġlate": 2140,
      "Ġheaven": 2141,
      "Ġhair": 2142,
      "ified": 2143,
      "ĠAh": 2144,
      "Ġconce": 2145,
      "Ġwanted": 2146,
      "Ġsilence": 2147,
      "come": 2148,
      "rance": 2149,
      "Ġbott": 2150,
      "Ġfut": 2151,
      "Ġpray": 2152,
      "orses": 2153,
      "Ġcommand": 2154,
      "ouglas": 2155,
      "iol": 2156,
      "mp": 2157,
      "noon": 2158,
      "Ġfanc": 2159,
      "Ġfield": 2160,
      "Ġdut": 2161,
      "Ġring": 2162,
      "Ġsuper": 2163,
      "ĠMag": 2164,
      "ĠWell": 2165,
      "Ġliving": 2166,
      "ists": 2167,
      "Ġdescri": 2168,
      "Ġbelow": 2169,
      "ege": 2170,
      "ior": 2171,
      "jaden": 2172,
      "ply": 2173,
      "erily": 2174,
      "Ġmus": 2175,
      "ening": 2176,
      "ored": 2177,
      "ĠMaule": 2178,
      "Ġaltogether": 2179,
      "Ġlies": 2180,
      "isted": 2181,
      "Ġprec": 2182,
      "Ġimport": 2183,
      "Ġfaith": 2184,
      "Ġvillage": 2185,
      "Ġsociety": 2186,
      "how": 2187,
      "mond": 2188,
      "Ġtree": 2189,
      "Ġinqu": 2190,
      "Ġshowed": 2191,
      "Ġdef": 2192,
      "Ġneck": 2193,
      "Ġnoble": 2194,
      "ĠGr": 2195,
      "Ġsurpr": 2196,
      "Ġyellow": 2197,
      "Ġcorner": 2198,
      "pit": 2199,
      "Ġwood": 2200,
      "ĠIr": 2201,
      "ically": 2202,
      "Ġrepe": 2203,
      "amed": 2204,
      "Ġsever": 2205,
      "ropp": 2206,
      "resh": 2207,
      "unk": 2208,
      "ĠEur": 2209,
      "Ġbright": 2210,
      "Ġdisp": 2211,
      "Ġgreatest": 2212,
      "Ġthinking": 2213,
      "Ġappeared": 2214,
      "Ġminutes": 2215,
      "ler": 2216,
      "Ġfly": 2217,
      "Ġdress": 2218,
      "Ġeag": 2219,
      "Ġetern": 2220,
      "Ġant": 2221,
      "ctor": 2222,
      "ement": 2223,
      "ĠOr": 2224,
      "Ġafraid": 2225,
      "Ġeng": 2226,
      "Ġenjoy": 2227,
      "Ġcomple": 2228,
      "Ġcourage": 2229,
      "Ġappro": 2230,
      "Ġinfl": 2231,
      "Ġraised": 2232,
      "Ġmonths": 2233,
      "Ġdinner": 2234,
      "'re": 2235,
      "In": 2236,
      "ev": 2237,
      "Ġsitting": 2238,
      "Ġhung": 2239,
      "Ġhorses": 2240,
      "athe": 2241,
      "Ġpen": 2242,
      "ĠBen": 2243,
      "Ġship": 2244,
      "Ġsugg": 2245,
      "Ġdog": 2246,
      "ibly": 2247,
      "Ġcouple": 2248,
      "Ġpleasant": 2249,
      "Ġwalked": 2250,
      "Ġtouch": 2251,
      "Ġsuggest": 2252,
      "fl": 2253,
      "head": 2254,
      "Ġfail": 2255,
      "Ġcustom": 2256,
      "Ġlod": 2257,
      "Ġgame": 2258,
      "ĠBab": 2259,
      "ĠWill": 2260,
      "Ġyourself": 2261,
      "ishment": 2262,
      "ĠJudge": 2263,
      "Ġremain": 2264,
      "Ġglass": 2265,
      "Ġpartic": 2266,
      "Ġslowly": 2267,
      "Ġschool": 2268,
      "Who": 2269,
      "mon": 2270,
      "Ġled": 2271,
      "Ġrich": 2272,
      "ĠThese": 2273,
      "ĠEvery": 2274,
      "Ġclot": 2275,
      "arent": 2276,
      "Ġpract": 2277,
      "Ġletters": 2278,
      "Ġcontr": 2279,
      "Ġbeauty": 2280,
      "Ġquickly": 2281,
      "Ġpicture": 2282,
      "!âĢĻ": 2283,
      "aves": 2284,
      "dle": 2285,
      "ech": 2286,
      "let": 2287,
      "Ġreached": 2288,
      "Ġsend": 2289,
      "pecially": 2290,
      "Ġconst": 2291,
      "Ġexcl": 2292,
      "Ġsaying": 2293,
      "cient": 2294,
      "Ġsometimes": 2295,
      "Ġcertainly": 2296,
      "Ġentirely": 2297,
      "ĠEurope": 2298,
      "king": 2299,
      "sed": 2300,
      "was": 2301,
      "Ġgaz": 2302,
      "irth": 2303,
      "Ġsto": 2304,
      "Ġnote": 2305,
      "ĠHoly": 2306,
      "ĠHalf": 2307,
      "Ġconv": 2308,
      "Ġlips": 2309,
      "Ġfellows": 2310,
      "Ġbroad": 2311,
      "Ġverily": 2312,
      "Ġvisit": 2313,
      "Ġcircum": 2314,
      "Ġdetermined": 2315,
      "Ġhusband": 2316,
      "ares": 2317,
      "ned": 2318,
      "inary": 2319,
      "otion": 2320,
      "Ġears": 2321,
      "idge": 2322,
      "Ġanx": 2323,
      "thren": 2324,
      "Ġdoing": 2325,
      "Ġviol": 2326,
      "Ġourselves": 2327,
      "Ġholy": 2328,
      "undle": 2329,
      "Ġdrew": 2330,
      "Ġtrem": 2331,
      "Ġreceived": 2332,
      "Ġmurder": 2333,
      "Ġdemand": 2334,
      "Ġspoken": 2335,
      "Ġfuture": 2336,
      "ĠMagny": 2337,
      "ha": 2338,
      "incess": 2339,
      "Ġhang": 2340,
      "Ġbank": 2341,
      "isf": 2342,
      "cell": 2343,
      "Ġreve": 2344,
      "alley": 2345,
      "ĠCastle": 2346,
      "Ġcharm": 2347,
      "olute": 2348,
      "ĠKropp": 2349,
      "ĠDouglas": 2350,
      "Ġproud": 2351,
      "Ġwritten": 2352,
      "Ġguest": 2353,
      "Ġterrible": 2354,
      "aimed": 2355,
      "ĠBritannula": 2356,
      "All": 2357,
      "OU": 2358,
      "old": 2359,
      "under": 2360,
      "rel": 2361,
      "Ġcause": 2362,
      "Ġdust": 2363,
      "Ġdaughter": 2364,
      "Ġpun": 2365,
      "Ġluck": 2366,
      "aled": 2367,
      "Ġseven": 2368,
      "ĠWh": 2369,
      "unity": 2370,
      "Ġperiod": 2371,
      "Ġscar": 2372,
      "ivid": 2373,
      "Ġthyself": 2374,
      "Ġbrethren": 2375,
      "Ġseems": 2376,
      "Ġaccord": 2377,
      "Ġgentlemen": 2378,
      "Ġoccur": 2379,
      "Ġwaiting": 2380,
      "Ġofficers": 2381,
      "Ġeasy": 2382,
      "ĠIrish": 2383,
      "Ġseveral": 2384,
      "ĠBabu": 2385,
      "AR": 2386,
      "ger": 2387,
      "ges": 2388,
      "inal": 2389,
      "ett": 2390,
      "ĠHigh": 2391,
      "ĠPres": 2392,
      "ĠGe": 2393,
      "Ġwrong": 2394,
      "overn": 2395,
      "ency": 2396,
      "Ġsingle": 2397,
      "ĠRedmond": 2398,
      "ĠSimms": 2399,
      "ires": 2400,
      "oll": 2401,
      "Ġstra": 2402,
      "ĠWho": 2403,
      "ĠFer": 2404,
      "Ġtrain": 2405,
      "Ġafternoon": 2406,
      "bend": 2407,
      "Ġbread": 2408,
      "Ġwrit": 2409,
      "ĠGods": 2410,
      "Ġdevil": 2411,
      "Ġproperty": 2412,
      "Ġenemy": 2413,
      "ĠNeverbend": 2414,
      "Ġnatural": 2415,
      "Ġforgotten": 2416,
      "Don": 2417,
      "house": 2418,
      "uel": 2419,
      "Ġsens": 2420,
      "Ġwear": 2421,
      "ĠHim": 2422,
      "amber": 2423,
      "iliar": 2424,
      "Ġvict": 2425,
      "ĠFrom": 2426,
      "ĠVerily": 2427,
      "Ġoccup": 2428,
      "Ġsubject": 2429,
      "Ġtrouble": 2430,
      "IN": 2431,
      "din": 2432,
      "ses": 2433,
      "uge": 2434,
      "Ġtried": 2435,
      "Ġorig": 2436,
      "Ġhar": 2437,
      "Ġmess": 2438,
      "Ġcross": 2439,
      "Ġcaught": 2440,
      "lling": 2441,
      "Ġpaid": 2442,
      "Ġlaid": 2443,
      "Ġgro": 2444,
      "lend": 2445,
      "ĠTjaden": 2446,
      "Ġsave": 2447,
      "redit": 2448,
      "Ġconvers": 2449,
      "ourse": 2450,
      "Ġprov": 2451,
      "ĠYor": 2452,
      "Ġtears": 2453,
      "Ġaware": 2454,
      "ipper": 2455,
      "Ġcircumst": 2456,
      "Now": 2457,
      "ipe": 2458,
      "kes": 2459,
      "spect": 2460,
      "erved": 2461,
      "Ġball": 2462,
      "Ġpal": 2463,
      "Ġaside": 2464,
      "Ġneither": 2465,
      "Ġvar": 2466,
      "Ġopened": 2467,
      "rupt": 2468,
      "Ġminute": 2469,
      "Ġeffort": 2470,
      "Ġexpression": 2471,
      "Ġcollege": 2472,
      "Ġfavour": 2473,
      "iers": 2474,
      "Ġwilt": 2475,
      "ator": 2476,
      "Ġtop": 2477,
      "ller": 2478,
      "ution": 2479,
      "Ġeight": 2480,
      "Ġund": 2481,
      "urgan": 2482,
      "Ġmem": 2483,
      "iling": 2484,
      "ĠWard": 2485,
      "elst": 2486,
      "Ġprison": 2487,
      "Ġpeace": 2488,
      "Ġstruck": 2489,
      "ĠRiver": 2490,
      "Ġpresence": 2491,
      "Ġcheer": 2492,
      "Ġnearly": 2493,
      "Ġlegs": 2494,
      "Ġmiles": 2495,
      "Ġescape": 2496,
      "jo": 2497,
      "ky": 2498,
      "Ġsister": 2499,
      "Ġmor": 2500,
      "Ġbook": 2501,
      "Ġfit": 2502,
      "orge": 2503,
      "Ġpath": 2504,
      "Ġlim": 2505,
      "owers": 2506,
      "Ġmeant": 2507,
      "road": 2508,
      "ĠSc": 2509,
      "Ġsplend": 2510,
      "ĠDubl": 2511,
      "arer": 2512,
      "Ġprot": 2513,
      "Ġpride": 2514,
      "Ġlooks": 2515,
      "teen": 2516,
      "Ġgrave": 2517,
      "ences": 2518,
      "Ġbitter": 2519,
      "So": 2520,
      "moon": 2521,
      "Ġwid": 2522,
      "reet": 2523,
      "Ġhill": 2524,
      "irm": 2525,
      "ume": 2526,
      "ĠOh": 2527,
      "ĠOur": 2528,
      "Ġblue": 2529,
      "icket": 2530,
      "Ġgrass": 2531,
      "tend": 2532,
      "Ġteac": 2533,
      "Ġimposs": 2534,
      "Thou": 2535,
      "Ġtalked": 2536,
      "Ġterror": 2537,
      "Ġespecially": 2538,
      "Ġparticular": 2539,
      "For": 2540,
      "Is": 2541,
      "pent": 2542,
      "Ġmoon": 2543,
      "Ġpit": 2544,
      "Ġformer": 2545,
      "Ġshar": 2546,
      "Ġshame": 2547,
      "Ġshout": 2548,
      "Ġsuit": 2549,
      "Ġvol": 2550,
      "antly": 2551,
      "Ġcloud": 2552,
      "Ġpassion": 2553,
      "Ġearn": 2554,
      "hys": 2555,
      "Ġnative": 2556,
      "ĠPrincess": 2557,
      "Ġpromise": 2558,
      "Ġgeneral": 2559,
      "Ġdifficult": 2560,
      "ĠQuin": 2561,
      "Ġimmediately": 2562,
      "ĠDublin": 2563,
      "Ġfate": 2564,
      "Ġdied": 2565,
      "Ġlatter": 2566,
      "Ġrail": 2567,
      "Ġshook": 2568,
      "Ġexam": 2569,
      "ĠLittle": 2570,
      "Ġblow": 2571,
      "Ġopin": 2572,
      "Ġwrite": 2573,
      "Ġentered": 2574,
      "Ġreport": 2575,
      "Ġcourt": 2576,
      "Ġclean": 2577,
      "Ġfallen": 2578,
      "Ġhighest": 2579,
      "ĠFerdin": 2580,
      "ĠFerdinand": 2581,
      "Ah": 2582,
      "TH": 2583,
      "bit": 2584,
      "da": 2585,
      "my": 2586,
      "tered": 2587,
      "Ġid": 2588,
      "ination": 2589,
      "Ġhop": 2590,
      "Ġharm": 2591,
      "Ġmiss": 2592,
      "Ġfresh": 2593,
      "Ġcool": 2594,
      "Ġkill": 2595,
      "Ġkilled": 2596,
      "ĠPlan": 2597,
      "Ġdisg": 2598,
      "ondon": 2599,
      "Ġsmiled": 2600,
      "there": 2601,
      "Ġmarried": 2602,
      "uthor": 2603,
      "Ġdepos": 2604,
      "Ġcoun": 2605,
      "Ġcondition": 2606,
      "Ġsummer": 2607,
      "ĠeBook": 2608,
      "ĠeBooks": 2609,
      "ĠPlanet": 2610,
      "ike": 2611,
      "Ġ2": 2612,
      "Ġwide": 2613,
      "Ġhither": 2614,
      "Ġmut": 2615,
      "Ġbull": 2616,
      "Ġcaptain": 2617,
      "Ġpity": 2618,
      "Ġhist": 2619,
      "Ġsafe": 2620,
      "Ġsport": 2621,
      "arker": 2622,
      "Ġboard": 2623,
      "Ġpleasure": 2624,
      "Ġmoved": 2625,
      "Ġlaughing": 2626,
      "rief": 2627,
      "ĠHalfmoon": 2628,
      "ĠHighness": 2629,
      "grave": 2630,
      "his": 2631,
      "ric": 2632,
      "uit": 2633,
      "Ġmakes": 2634,
      "Ġtong": 2635,
      "Ġbeast": 2636,
      "Ġrevol": 2637,
      "ury": 2638,
      "ĠHind": 2639,
      "ament": 2640,
      "Ġallow": 2641,
      "ĠLurgan": 2642,
      "Ġlean": 2643,
      "Ġtrust": 2644,
      "ĠDu": 2645,
      "Ġshoulders": 2646,
      "Ġbelong": 2647,
      "Ġmatters": 2648,
      "Ġconfess": 2649,
      "Ġtrees": 2650,
      "Ġsuffic": 2651,
      "Ġadded": 2652,
      "Ġsymp": 2653,
      "AN": 2654,
      "As": 2655,
      "To": 2656,
      "mn": 2657,
      "Ġtaste": 2658,
      "Ġobl": 2659,
      "Ġbow": 2660,
      "Ġfast": 2661,
      "Ġtone": 2662,
      "Ġthro": 2663,
      "Ġlying": 2664,
      "uten": 2665,
      "ĠBy": 2666,
      "ĠMall": 2667,
      "Ġsole": 2668,
      "ĠSome": 2669,
      "ĠLondon": 2670,
      "Ġotherwise": 2671,
      "bert": 2672,
      "Ġattack": 2673,
      "ĠSahibs": 2674,
      "Ġbroke": 2675,
      "Ġimpossible": 2676,
      "ipped": 2677,
      "min": 2678,
      "ze": 2679,
      "ises": 2680,
      "ories": 2681,
      "Ġposition": 2682,
      "ĠIre": 2683,
      "Ġgh": 2684,
      "ics": 2685,
      "cend": 2686,
      "alt": 2687,
      "Ġrace": 2688,
      "Ġhero": 2689,
      "ĠWhere": 2690,
      "ĠChe": 2691,
      "ĠPar": 2692,
      "aked": 2693,
      "ĠGovern": 2694,
      "Ġemb": 2695,
      "Ġanimals": 2696,
      "Ġutter": 2697,
      "Ġexperience": 2698,
      "Ġduty": 2699,
      "Ġstraight": 2700,
      "Kim": 2701,
      "uct": 2702,
      "wo": 2703,
      "Ġcra": 2704,
      "arily": 2705,
      "Ġlif": 2706,
      "enture": 2707,
      "Ġweight": 2708,
      "Ġstud": 2709,
      "Ġsearch": 2710,
      "esty": 2711,
      "rand": 2712,
      "Ġdozen": 2713,
      "Ġalthough": 2714,
      "Ġvain": 2715,
      "cked": 2716,
      "ĠDivine": 2717,
      "Ġshoulder": 2718,
      "tained": 2719,
      "Ġfloor": 2720,
      "Ġscre": 2721,
      "bles": 2722,
      "Ġsatisf": 2723,
      "Ġintended": 2724,
      "Ġburst": 2725,
      "Ġappearance": 2726,
      "Ġfingers": 2727,
      "Ġexistence": 2728,
      "Ġneighbour": 2729,
      "ĠCountess": 2730,
      "utenant": 2731,
      "Gin": 2732,
      "When": 2733,
      "aff": 2734,
      "ees": 2735,
      "tr": 2736,
      "Ġtreat": 2737,
      "Ġauthor": 2738,
      "ining": 2739,
      "Ġwret": 2740,
      "Ġwicked": 2741,
      "Ġmain": 2742,
      "Ġfaces": 2743,
      "Ġthird": 2744,
      "Ġdawn": 2745,
      "Ġphys": 2746,
      "oman": 2747,
      "Ġbell": 2748,
      "Ġforce": 2749,
      "alse": 2750,
      "Ġisland": 2751,
      "ĠHad": 2752,
      "ĠSu": 2753,
      "Ġoutside": 2754,
      "ples": 2755,
      "Ġspeech": 2756,
      "Ġslight": 2757,
      "Ġnews": 2758,
      "Ġevident": 2759,
      "Ġapart": 2760,
      "Ġforest": 2761,
      "ĠPrince": 2762,
      "Ġpaper": 2763,
      "ĠFerdinando": 2764,
      "ĠIreland": 2765,
      "Ginty": 2766,
      "cy": 2767,
      "gy": 2768,
      "por": 2769,
      "son": 2770,
      "erve": 2771,
      "Ġhealth": 2772,
      "leep": 2773,
      "Ġstick": 2774,
      "Ġalive": 2775,
      "Ġunless": 2776,
      "Ġglance": 2777,
      "ancing": 2778,
      "meric": 2779,
      "Ġplayed": 2780,
      "ĠAlice": 2781,
      "Ġsett": 2782,
      "Ġstanding": 2783,
      "Ġdelic": 2784,
      "ĠHolgrave": 2785,
      "reedom": 2786,
      "Ġfortune": 2787,
      "Ġprivate": 2788,
      "Ġprobably": 2789,
      "Ġscarce": 2790,
      "ividual": 2791,
      "Ġconversation": 2792,
      "oh": 2793,
      "sion": 2794,
      "Ġtur": 2795,
      "isc": 2796,
      "Ġfond": 2797,
      "Ġcook": 2798,
      "Ġcamp": 2799,
      "Ġleng": 2800,
      "Ġstone": 2801,
      "oop": 2802,
      "alla": 2803,
      "Ġvan": 2804,
      "ĠLe": 2805,
      "abl": 2806,
      "Ġclaim": 2807,
      "angu": 2808,
      "Ġremained": 2809,
      "Ġheads": 2810,
      "Ġindividual": 2811,
      "Ġbox": 2812,
      "formed": 2813,
      "Ġintell": 2814,
      "Ġpolice": 2815,
      "mballa": 2816,
      "Ġladies": 2817,
      "Ġangry": 2818,
      "ĠGeorge": 2819,
      "ĠMallory": 2820,
      "ON": 2821,
      "erence": 2822,
      "ners": 2823,
      "Ġborn": 2824,
      "Ġthin": 2825,
      "Ġthrew": 2826,
      "Ġdiv": 2827,
      "Ġpra": 2828,
      "Ġhen": 2829,
      "Ġgar": 2830,
      "sequ": 2831,
      "Ġriver": 2832,
      "Ġshr": 2833,
      "ĠAr": 2834,
      "Ġperm": 2835,
      "ected": 2836,
      "Ġempt": 2837,
      "valier": 2838,
      "ĠNora": 2839,
      "Ġpapers": 2840,
      "Ġinflu": 2841,
      "Ġclothes": 2842,
      "ST": 2843,
      "gain": 2844,
      "Ġhate": 2845,
      "Ġhost": 2846,
      "oura": 2847,
      "esh": 2848,
      "Ġpress": 2849,
      "Ġlangu": 2850,
      "sem": 2851,
      "choly": 2852,
      "ulty": 2853,
      "Ġunf": 2854,
      "appe": 2855,
      "ively": 2856,
      "idered": 2857,
      "Ġguess": 2858,
      "Ġrepres": 2859,
      "ĠUmballa": 2860,
      "Ġbuild": 2861,
      "ilson": 2862,
      "Ġacquaint": 2863,
      "Ġaccompl": 2864,
      "Free": 2865,
      "con": 2866,
      "ris": 2867,
      "Ġav": 2868,
      "iny": 2869,
      "erable": 2870,
      "Ġpure": 2871,
      "Ġpale": 2872,
      "asc": 2873,
      "iced": 2874,
      "Ġreach": 2875,
      "Ġweary": 2876,
      "osite": 2877,
      "Ġproceed": 2878,
      "Ġsomewhat": 2879,
      "Ġscene": 2880,
      "Ġmarriage": 2881,
      "Ġchela": 2882,
      "Ġgrew": 2883,
      "Ġunderstood": 2884,
      "Ġpiece": 2885,
      "Ġcoward": 2886,
      "ĠGrundle": 2887,
      "Ġcomplete": 2888,
      "Ġopinion": 2889,
      "Ġhistory": 2890,
      "ĠChevalier": 2891,
      ").": 2892,
      "ging": 2893,
      "ians": 2894,
      "par": 2895,
      "Ġtall": 2896,
      "Ġmurd": 2897,
      "Ġcig": 2898,
      "Ġcab": 2899,
      "Ġthirty": 2900,
      "Ġheight": 2901,
      "Ġgiving": 2902,
      "Ġstar": 2903,
      "Ġstro": 2904,
      "Ġstation": 2905,
      "Ġstern": 2906,
      "ĠBarker": 2907,
      "ĠAb": 2908,
      "Ġsail": 2909,
      "Ġspite": 2910,
      "Ġarg": 2911,
      "place": 2912,
      "Ġturning": 2913,
      "Ġhappen": 2914,
      "Ġlaught": 2915,
      "Ġfamiliar": 2916,
      "Ġpleased": 2917,
      "Ġsimply": 2918,
      "Ġextra": 2919,
      "Ġiron": 2920,
      "Ġspring": 2921,
      "Ġexclaimed": 2922,
      "ĠPresident": 2923,
      "gar": 2924,
      "heth": 2925,
      "Ġsac": 2926,
      "erman": 2927,
      "Ġfre": 2928,
      "Ġfle": 2929,
      "Ġfalse": 2930,
      "enced": 2931,
      "Ġnames": 2932,
      "oted": 2933,
      "Ġrate": 2934,
      "aming": 2935,
      "Ġshut": 2936,
      "ĠSh": 2937,
      "que": 2938,
      "pping": 2939,
      "aker": 2940,
      "ordan": 2941,
      "Ġrock": 2942,
      "Ġstrugg": 2943,
      "Ġgloom": 2944,
      "Ġresp": 2945,
      "Ġconscious": 2946,
      "Ġboots": 2947,
      "Ġdiscuss": 2948,
      "Ġmountains": 2949,
      "Ġweeks": 2950,
      "af": 2951,
      "Ġer": 2952,
      "Ġwarn": 2953,
      "Ġbooks": 2954,
      "Ġnumber": 2955,
      "Ġgall": 2956,
      "iring": 2957,
      "urree": 2958,
      "Ġwel": 2959,
      "ams": 2960,
      "ĠMY": 2961,
      "Ġwouldn": 2962,
      "ourt": 2963,
      "Ġworse": 2964,
      "ĠEven": 2965,
      "arest": 2966,
      "Ġpock": 2967,
      "Ġcover": 2968,
      "Ġcarriage": 2969,
      "Ġsilver": 2970,
      "Ġdrawn": 2971,
      "ĠOnce": 2972,
      "ĠLadyship": 2973,
      "Ġopposite": 2974,
      "Ġprofess": 2975,
      "Ġdeparture": 2976,
      "Ġanxious": 2977,
      "Ġlength": 2978,
      "bered": 2979,
      "ob": 2980,
      "Ġwand": 2981,
      "Ġhuge": 2982,
      "Ġthreat": 2983,
      "Ġdign": 2984,
      "ades": 2985,
      "Ġmelan": 2986,
      "ĠWhe": 2987,
      "Ġnose": 2988,
      "acks": 2989,
      "ode": 2990,
      "ĠOf": 2991,
      "Ġlikely": 2992,
      "Ġgrasp": 2993,
      "chen": 2994,
      "Ġsmoke": 2995,
      "cial": 2996,
      "Ġgetting": 2997,
      "Ġbreast": 2998,
      "actly": 2999,
      "Ġcontempt": 3000,
      "gged": 3001,
      "ictor": 3002,
      "Ġstret": 3003,
      "Ġhandsome": 3004,
      "ĠVictor": 3005,
      "attered": 3006,
      "Ġsunsh": 3007,
      "Ġsteps": 3008,
      "Ġcircumstances": 3009,
      "Ġlaughter": 3010,
      "don": 3011,
      "ear": 3012,
      "iest": 3013,
      "iently": 3014,
      "kn": 3015,
      "melst": 3016,
      "ring": 3017,
      "tt": 3018,
      "Ġmaid": 3019,
      "Ġbirth": 3020,
      "ature": 3021,
      "Ġfain": 3022,
      "Ġfol": 3023,
      "Ġlab": 3024,
      "ashed": 3025,
      "Ġbehold": 3026,
      "Ġwealth": 3027,
      "Ġrap": 3028,
      "Ġsaved": 3029,
      "ĠMac": 3030,
      "Ġchief": 3031,
      "ounded": 3032,
      "ĠGerman": 3033,
      "Ġjour": 3034,
      "Ġyourselves": 3035,
      "Ġenc": 3036,
      "Ġrob": 3037,
      "Ġthrow": 3038,
      "Ġcoat": 3039,
      "ission": 3040,
      "Ġtender": 3041,
      "Ġwants": 3042,
      "Ġarmy": 3043,
      "Ġboys": 3044,
      "Ġartist": 3045,
      "Ġgives": 3046,
      "Ġsky": 3047,
      "riend": 3048,
      "Ġlodge": 3049,
      "melstoss": 3050,
      "yp": 3051,
      "isto": 3052,
      "oned": 3053,
      "Ġthine": 3054,
      "Ġden": 3055,
      "Ġdim": 3056,
      "Ġeld": 3057,
      "ays": 3058,
      "ĠAmeric": 3059,
      "ĠWilson": 3060,
      "Ġvalley": 3061,
      "umph": 3062,
      "Ġspot": 3063,
      "Ġspent": 3064,
      "Ġseeing": 3065,
      "ĠStreet": 3066,
      "Ġpowerful": 3067,
      "ĠMcGinty": 3068,
      "Ġmurm": 3069,
      "Ġwounded": 3070,
      "Ġprepared": 3071,
      "Ġmelancholy": 3072,
      "cceed": 3073,
      "hand": 3074,
      "kind": 3075,
      "ture": 3076,
      "will": 3077,
      "Ġod": 3078,
      "Ġhit": 3079,
      "Ġfilled": 3080,
      "Ġdance": 3081,
      "stem": 3082,
      "ĠâĢĿ": 3083,
      "Ġros": 3084,
      "terday": 3085,
      "church": 3086,
      "Ġsav": 3087,
      "Ġsucceed": 3088,
      "Ġdeck": 3089,
      "Ġking": 3090,
      "Ġnodd": 3091,
      "Ġuns": 3092,
      "umn": 3093,
      "Ġleaving": 3094,
      "Ġusual": 3095,
      "ĠKing": 3096,
      "Ġbrown": 3097,
      "Ġprin": 3098,
      "iple": 3099,
      "Ġhearts": 3100,
      "clock": 3101,
      "Here": 3102,
      "Ġmarry": 3103,
      "Ġadvant": 3104,
      "Ġfollowing": 3105,
      "Ġwonderful": 3106,
      "Ġphil": 3107,
      "Ġbeneath": 3108,
      "Ġdirect": 3109,
      "ĠChristchurch": 3110,
      "Ġfancy": 3111,
      "Ġeager": 3112,
      "Ġearnest": 3113,
      "Ġsympath": 3114,
      "ohn": 3115,
      "Ġsunshine": 3116,
      "EN": 3117,
      "cest": 3118,
      "een": 3119,
      "lick": 3120,
      "master": 3121,
      "morrow": 3122,
      "Ġtaught": 3123,
      "inite": 3124,
      "Ġwa": 3125,
      "Ġwine": 3126,
      "Ġmort": 3127,
      "Ġmention": 3128,
      "itation": 3129,
      "Ġpack": 3130,
      "Ġlack": 3131,
      "Ġinj": 3132,
      "imate": 3133,
      "ayed": 3134,
      "Ġstop": 3135,
      "Ġrough": 3136,
      "acted": 3137,
      "antic": 3138,
      "ĠHeaven": 3139,
      "ospit": 3140,
      "Ġtwice": 3141,
      "Ġways": 3142,
      "Ġwatched": 3143,
      "ĠAlbert": 3144,
      "....": 3145,
      "Ġservant": 3146,
      "Ġexplain": 3147,
      "Ġinnoc": 3148,
      "Ġwidow": 3149,
      "Ġsharp": 3150,
      "Ġwelcome": 3151,
      "father": 3152,
      "kipper": 3153,
      "yed": 3154,
      "¼ller": 3155,
      "Ã¼ller": 3156,
      "Ġaston": 3157,
      "Ġsong": 3158,
      "Ġdom": 3159,
      "Ġgen": 3160,
      "vere": 3161,
      "Ġstir": 3162,
      "Ġancient": 3163,
      "Ġancest": 3164,
      "acious": 3165,
      "ĠMor": 3166,
      "ĠSuch": 3167,
      "geant": 3168,
      "Ġcrim": 3169,
      "Ġende": 3170,
      "Ġmarch": 3171,
      "Ġdistr": 3172,
      "Ġamongst": 3173,
      "ĠUlick": 3174,
      "Ġactually": 3175,
      "fortun": 3176,
      "Ġdropped": 3177,
      "ĠSeven": 3178,
      "Ġpieces": 3179,
      "Ġoccurred": 3180,
      "ĠDuke": 3181,
      "bing": 3182,
      "do": 3183,
      "look": 3184,
      "Ġtest": 3185,
      "Ġsor": 3186,
      "Ġbag": 3187,
      "atic": 3188,
      "enance": 3189,
      "Ġpet": 3190,
      "Ġlot": 3191,
      "asure": 3192,
      "Ġrejo": 3193,
      "ales": 3194,
      "Ġrum": 3195,
      "ĠAm": 3196,
      "rol": 3197,
      "Ġalarm": 3198,
      "unic": 3199,
      "Ġknees": 3200,
      "ĠGl": 3201,
      "ĠDe": 3202,
      "Ġaccept": 3203,
      "Ġgray": 3204,
      "action": 3205,
      "Ġteach": 3206,
      "Ġdistance": 3207,
      "ĠEnglishman": 3208,
      "Ġpersonal": 3209,
      "Ġabsolute": 3210,
      "âĢĶâĢĶ\"": 3211,
      "Ġimportant": 3212,
      "cr": 3213,
      "Ġhills": 3214,
      "Ġfaint": 3215,
      "Ġasleep": 3216,
      "ulous": 3217,
      "Ġcho": 3218,
      "Ġchanged": 3219,
      "ĠNe": 3220,
      "ĠEx": 3221,
      "Ġplan": 3222,
      "Ġcrime": 3223,
      "cience": 3224,
      "Ġdiscourse": 3225,
      "Ġdread": 3226,
      "Ġmeaning": 3227,
      "Ġstarted": 3228,
      "ĠFrenchman": 3229,
      "Ġgolden": 3230,
      "Ġdifficulty": 3231,
      "Ġbeginning": 3232,
      "Ġshoot": 3233,
      "Ġfifty": 3234,
      "ĠHimmelstoss": 3235,
      "Ġtongue": 3236,
      "Ġsolemn": 3237,
      "ĠGovernment": 3238,
      "ĠSuper": 3239,
      "end": 3240,
      "ys": 3241,
      "itated": 3242,
      "Ġfer": 3243,
      "Ġthick": 3244,
      "arry": 3245,
      "Ġpick": 3246,
      "Ġlord": 3247,
      "Ġlower": 3248,
      "Ġhes": 3249,
      "omp": 3250,
      "owl": 3251,
      "hers": 3252,
      "acity": 3253,
      "ĠHurree": 3254,
      "ĠSkipper": 3255,
      "pend": 3256,
      "ouses": 3257,
      "Ġchap": 3258,
      "elve": 3259,
      "ĠJordan": 3260,
      "ĠJohn": 3261,
      "iction": 3262,
      "Ġdepth": 3263,
      "Ġaffection": 3264,
      "Ġhorror": 3265,
      "Ġeasily": 3266,
      "Ġtriumph": 3267,
      "Ġestabl": 3268,
      "Ġsystem": 3269,
      "Ġvalues": 3270,
      "Ġdrive": 3271,
      "Ġenemies": 3272,
      "Ġwitness": 3273,
      "Ġmusic": 3274,
      "Ġrepeated": 3275,
      "athered": 3276,
      "Ġpocket": 3277,
      "Where": 3278,
      "bly": 3279,
      "ding": 3280,
      "Ġ.": 3281,
      "Ġign": 3282,
      "Ġhated": 3283,
      "Ġfarm": 3284,
      "Ġcave": 3285,
      "vern": 3286,
      "Ġrank": 3287,
      "ĠMany": 3288,
      "ilar": 3289,
      "Ġkiss": 3290,
      "Ġwheel": 3291,
      "ĠCourt": 3292,
      "Ġconne": 3293,
      "olog": 3294,
      "osop": 3295,
      "agan": 3296,
      "Ġpecul": 3297,
      "Ġcruel": 3298,
      "Ġpassing": 3299,
      "Ġimpat": 3300,
      "Ġcountenance": 3301,
      "ĠVen": 3302,
      "Ġcurious": 3303,
      "Ġsurely": 3304,
      "Ġdarkness": 3305,
      "Ġopport": 3306,
      "Ġmerit": 3307,
      "cellent": 3308,
      "Ġghost": 3309,
      "Ġacquaintance": 3310,
      "Ġjourney": 3311,
      "Ġendeav": 3312,
      ";âĢĶ": 3313,
      "At": 3314,
      "OR": 3315,
      "ef": 3316,
      "off": 3317,
      "zz": 3318,
      "Ġsought": 3319,
      "Ġsorrow": 3320,
      "ergy": 3321,
      "Ġmir": 3322,
      "Ġband": 3323,
      "Ġburn": 3324,
      "Ġcas": 3325,
      "Ġdi": 3326,
      "Ġlit": 3327,
      "Ġlones": 3328,
      "Ġincl": 3329,
      "Ġhall": 3330,
      "Ġstorm": 3331,
      "Ġrain": 3332,
      "Ġnotice": 3333,
      "Ġdece": 3334,
      "Ġblind": 3335,
      "Ġdism": 3336,
      "Ġsmo": 3337,
      "Ġflung": 3338,
      "ĠYes": 3339,
      "Ġserved": 3340,
      "Ġenter": 3341,
      "Ġtalking": 3342,
      "Ġinstead": 3343,
      "Ġstands": 3344,
      "Ġwaited": 3345,
      "Ġsimple": 3346,
      "Ġfinally": 3347,
      "Ġedge": 3348,
      "Ġtemper": 3349,
      "Ġpeculiar": 3350,
      "Good": 3351,
      "ially": 3352,
      "uce": 3353,
      "win": 3354,
      "Ġaut": 3355,
      "Ġhospit": 3356,
      "Ġbird": 3357,
      "Ġbrave": 3358,
      "Ġfish": 3359,
      "Ġbef": 3360,
      "Ġstiff": 3361,
      "Ġdost": 3362,
      "Ġdoct": 3363,
      "ĠCre": 3364,
      "Ġchamber": 3365,
      "unch": 3366,
      "osom": 3367,
      "Ġcomr": 3368,
      "Ġcometh": 3369,
      "ĠFather": 3370,
      "Ġclim": 3371,
      "Ġlonging": 3372,
      "Ġpoison": 3373,
      "tended": 3374,
      "ivil": 3375,
      "Ġindic": 3376,
      "Ġentertain": 3377,
      "Ġdistur": 3378,
      "Ġrunning": 3379,
      "Ġremembered": 3380,
      "Ġruin": 3381,
      "Ġestate": 3382,
      "Ġmodern": 3383,
      "Ġpossession": 3384,
      "while": 3385,
      "Ġblessed": 3386,
      "Ġexpected": 3387,
      "Ġprecise": 3388,
      "Ġstopped": 3389,
      "Ġnodded": 3390,
      "Be": 3391,
      "IT": 3392,
      "Let": 3393,
      "fast": 3394,
      "oved": 3395,
      "Ġtit": 3396,
      "Ġtale": 3397,
      "Ġsche": 3398,
      "Ġhut": 3399,
      "Ġbra": 3400,
      "itions": 3401,
      "Ġfreedom": 3402,
      "Ġsepar": 3403,
      "Ġthereby": 3404,
      "olis": 3405,
      "ument": 3406,
      "osing": 3407,
      "ĠOda": 3408,
      "Ġtrad": 3409,
      "Ġenv": 3410,
      "Ġdisci": 3411,
      "Ġstrang": 3412,
      "Ġstranger": 3413,
      "ocks": 3414,
      "Ġinstinct": 3415,
      "Ġgrace": 3416,
      "Ġpurs": 3417,
      "Ġinspect": 3418,
      "Ġskin": 3419,
      "Ġpromised": 3420,
      "Ġsnow": 3421,
      "Ġfoolish": 3422,
      "Ġsoldiers": 3423,
      "Ġextre": 3424,
      "Ġmountain": 3425,
      "Ġarrived": 3426,
      "ĠIndia": 3427,
      "Ġfrightened": 3428,
      "Ġcompanion": 3429,
      "ĠBenares": 3430,
      "Ġcheerful": 3431,
      "Ġphilosop": 3432,
      "bted": 3433,
      "ium": 3434,
      "pse": 3435,
      "she": 3436,
      "Ġack": 3437,
      "Ġcart": 3438,
      "ingu": 3439,
      "ingdon": 3440,
      "Ġloud": 3441,
      "Ġinh": 3442,
      "Ġhabit": 3443,
      "uted": 3444,
      "Ġwasn": 3445,
      "Ġaspect": 3446,
      "ĠHave": 3447,
      "ĠHills": 3448,
      "Ġfrag": 3449,
      "rop": 3450,
      "Ġsusp": 3451,
      "ĠMÃ¼ller": 3452,
      "ours": 3453,
      "Ġlives": 3454,
      "arted": 3455,
      "ĠLook": 3456,
      "Ġspread": 3457,
      "Ġjump": 3458,
      "ĠFagan": 3459,
      "Ġplain": 3460,
      "ĠDid": 3461,
      "Ġteeth": 3462,
      "atson": 3463,
      "Ġgirls": 3464,
      "Ġvoices": 3465,
      "Ġplease": 3466,
      "Ġfeelings": 3467,
      "Ġcurtain": 3468,
      "Ġsupposed": 3469,
      "Ġaction": 3470,
      "erer": 3471,
      "Ġsentiment": 3472,
      "Ġincre": 3473,
      "Ġorders": 3474,
      "Ġfinger": 3475,
      "ealous": 3476,
      "Ġyesterday": 3477,
      "Ġarrange": 3478,
      "Ġdemanded": 3479,
      "Ġhitherto": 3480,
      "Ġwretched": 3481,
      "Ġempty": 3482,
      "Ġinfluence": 3483,
      "ĠGlad": 3484,
      "Ġacknow": 3485,
      "00": 3486,
      "fer": 3487,
      "ik": 3488,
      "ron": 3489,
      "ype": 3490,
      "Ġoper": 3491,
      "Ġhol": 3492,
      "itable": 3493,
      "itary": 3494,
      "Ġdam": 3495,
      "Ġgle": 3496,
      "Ġgod": 3497,
      "lected": 3498,
      "Ġreven": 3499,
      "Ġrust": 3500,
      "ĠHa": 3501,
      "ifice": 3502,
      "ĠMin": 3503,
      "anted": 3504,
      "Ġknock": 3505,
      "Ġworst": 3506,
      "aps": 3507,
      "Ġproved": 3508,
      "Ġclass": 3509,
      "Ġdisappe": 3510,
      "Ġsmiling": 3511,
      "ĠRo": 3512,
      "theless": 3513,
      "ĠTherefore": 3514,
      "Ġjustice": 3515,
      "Ġconsidered": 3516,
      "Ġconscience": 3517,
      "Ġevents": 3518,
      "Ġwindows": 3519,
      "Ġterms": 3520,
      "Ġsouls": 3521,
      "ĠBritish": 3522,
      "appy": 3523,
      "Ġeduc": 3524,
      "Ġbeggar": 3525,
      "Ġthroat": 3526,
      "ĠSuperman": 3527,
      "Sure": 3528,
      "apped": 3529,
      "lour": 3530,
      "right": 3531,
      "Ġ3": 3532,
      "ital": 3533,
      "Ġfun": 3534,
      "Ġcredit": 3535,
      "âĢ¦": 3536,
      "Ġdying": 3537,
      "Ġpot": 3538,
      "Ġgift": 3539,
      "icious": 3540,
      "Ġur": 3541,
      "Ġyouse": 3542,
      "Ġrag": 3543,
      "ighton": 3544,
      "this": 3545,
      "Ġdeed": 3546,
      "raph": 3547,
      "ĠCome": 3548,
      "Ġves": 3549,
      "Ġchurch": 3550,
      "ague": 3551,
      "Ġprog": 3552,
      "Ġknowing": 3553,
      "ibility": 3554,
      "Ġgreater": 3555,
      "ipto": 3556,
      "Ġspeaking": 3557,
      "Ġasks": 3558,
      "Ġwanteth": 3559,
      "Ġentrance": 3560,
      "Ġmoments": 3561,
      "Ġrooms": 3562,
      "Ġbesides": 3563,
      "Ġvirtues": 3564,
      "Ġfault": 3565,
      "Ġlisten": 3566,
      "Ġweakness": 3567,
      "Ġmagic": 3568,
      "ĠBullingdon": 3569,
      "Ġsplendid": 3570,
      "known": 3571,
      "ND": 3572,
      "Of": 3573,
      "had": 3574,
      "Ġwished": 3575,
      "Ġsigh": 3576,
      "Ġodd": 3577,
      "Ġmate": 3578,
      "Ġble": 3579,
      "Ġthirst": 3580,
      "Ġthither": 3581,
      "Ġdry": 3582,
      "Ġhal": 3583,
      "icy": 3584,
      "Ġyards": 3585,
      "urg": 3586,
      "Ġstore": 3587,
      "Ġstuff": 3588,
      "ify": 3589,
      "alled": 3590,
      "rodu": 3591,
      "ĠMay": 3592,
      "ĠSp": 3593,
      "pelled": 3594,
      "Ġnearer": 3595,
      "aketh": 3596,
      "Ġagree": 3597,
      "Ġplaces": 3598,
      "Ġprove": 3599,
      "Ġcouldn": 3600,
      "arsh": 3601,
      "Ġpointed": 3602,
      "ips": 3603,
      "they": 3604,
      "Ġdeser": 3605,
      "Ġrecoll": 3606,
      "iety": 3607,
      "Ġaffairs": 3608,
      "Ġgrey": 3609,
      "Ġaddress": 3610,
      "Ġdrop": 3611,
      "Ġregarded": 3612,
      "Ġwinter": 3613,
      "Ġcompanions": 3614,
      "Ġcaused": 3615,
      "Ġcompliment": 3616,
      "Ġcalm": 3617,
      "Ġpopul": 3618,
      "Ġoriginal": 3619,
      "Ġoblig": 3620,
      "Ġfrequ": 3621,
      "ĠCreighton": 3622,
      "Ġvessel": 3623,
      "ES": 3624,
      "With": 3625,
      "long": 3626,
      "Ġwond": 3627,
      "Ġcost": 3628,
      "arrow": 3629,
      "inger": 3630,
      "see": 3631,
      "Ġris": 3632,
      "Ġrub": 3633,
      "Ġrushed": 3634,
      "Ġshare": 3635,
      "ĠTheir": 3636,
      "ĠMan": 3637,
      "ĠWatson": 3638,
      "Ġnobody": 3639,
      "Ġexceed": 3640,
      "aped": 3641,
      "ums": 3642,
      "ĠFriend": 3643,
      "eps": 3644,
      "Ġbridge": 3645,
      "ishing": 3646,
      "Ġclosed": 3647,
      "Ġtwelve": 3648,
      "Ġoffered": 3649,
      "Ġperform": 3650,
      "Ġthrown": 3651,
      "Ġmighty": 3652,
      "Ġcarpent": 3653,
      "Ġsupport": 3654,
      "Ġinterrupt": 3655,
      "upon": 3656,
      "Ġexpress": 3657,
      "Ġparlour": 3658,
      "Ġexplained": 3659,
      "Ġdreams": 3660,
      "Ġreceive": 3661,
      "Ġsprang": 3662,
      "Ġremarked": 3663,
      "Ġpulled": 3664,
      "Ġdeposited": 3665,
      "Ġprecisely": 3666,
      "Ġcarpenter": 3667,
      "Come": 3668,
      "On": 3669,
      "bers": 3670,
      "some": 3671,
      "uation": 3672,
      "erc": 3673,
      "Ġmass": 3674,
      "Ġbosom": 3675,
      "atthe": 3676,
      "Ġcand": 3677,
      "ari": 3678,
      "inging": 3679,
      "lect": 3680,
      "Ġemer": 3681,
      "Ġasham": 3682,
      "Ġroof": 3683,
      "chief": 3684,
      "Ġvast": 3685,
      "Ġconcl": 3686,
      "Ġshel": 3687,
      "umed": 3688,
      "inking": 3689,
      "Ġlikewise": 3690,
      "Ġimm": 3691,
      "Ġgrown": 3692,
      "Ġpoet": 3693,
      "Ġscore": 3694,
      "ival": 3695,
      "Ġputting": 3696,
      "ails": 3697,
      "Ġinstance": 3698,
      "Ġspirits": 3699,
      "Ġfamous": 3700,
      "ception": 3701,
      "Ġforeign": 3702,
      "Ġservants": 3703,
      "Ġconsiderable": 3704,
      "Ġaccomp": 3705,
      "Ġexcited": 3706,
      "Ġhidden": 3707,
      "Ġsurprised": 3708,
      "Ġscarcely": 3709,
      "Ġadvantage": 3710,
      "Ġsympathy": 3711,
      "Ġashamed": 3712,
      "IL": 3713,
      "say": 3714,
      "view": 3715,
      "Ġtakes": 3716,
      "inate": 3717,
      "Ġsam": 3718,
      "atched": 3719,
      "Ġfixed": 3720,
      "Ġcat": 3721,
      "Ġlone": 3722,
      "Ġgathered": 3723,
      "stone": 3724,
      "Ġug": 3725,
      "Ġwithd": 3726,
      "Ġweap": 3727,
      "Ġmyster": 3728,
      "Ġrise": 3729,
      "tering": 3730,
      "ĠBl": 3731,
      "Ġsuspect": 3732,
      "iles": 3733,
      "Ġdeg": 3734,
      "Ġkings": 3735,
      "ĠWor": 3736,
      "Ġconsequ": 3737,
      "Ġunh": 3738,
      "osity": 3739,
      "Ġjealous": 3740,
      "icken": 3741,
      "uded": 3742,
      "Ġsmell": 3743,
      "Ġparts": 3744,
      "Ġplaying": 3745,
      "Ġdistingu": 3746,
      "Ġpossibly": 3747,
      "Ġneeded": 3748,
      "velop": 3749,
      "Ġdrove": 3750,
      "Ġbuilt": 3751,
      "Ġprofound": 3752,
      "which": 3753,
      "Ġdrawing": 3754,
      "Ġquarter": 3755,
      "ĠUncle": 3756,
      "Ġlanguage": 3757,
      "Ġsacr": 3758,
      "Ġopportunity": 3759,
      "bre": 3760,
      "col": 3761,
      "io": 3762,
      "lin": 3763,
      "ming": 3764,
      "pass": 3765,
      "woman": 3766,
      "Ġmatch": 3767,
      "itchen": 3768,
      "Ġfart": 3769,
      "Ġcatch": 3770,
      "Ġcivil": 3771,
      "Ġheat": 3772,
      "Ġgri": 3773,
      "oto": 3774,
      "stand": 3775,
      "Ġrif": 3776,
      "illi": 3777,
      "Ġshore": 3778,
      "Ġshown": 3779,
      "ching": 3780,
      "rose": 3781,
      "ĠCal": 3782,
      "ieur": 3783,
      "Ġexec": 3784,
      "Ġjew": 3785,
      "Ġamaz": 3786,
      "eper": 3787,
      "eping": 3788,
      "opolis": 3789,
      "udden": 3790,
      "ploy": 3791,
      "Ġtea": 3792,
      "Ġsergeant": 3793,
      "Ġkeen": 3794,
      "Ġrecru": 3795,
      "Ġdrunk": 3796,
      "Ġreply": 3797,
      "Ġattention": 3798,
      "Ġpresently": 3799,
      "Ġkindly": 3800,
      "Ġaffair": 3801,
      "Ġcharge": 3802,
      "Ġhonest": 3803,
      "Ġreader": 3804,
      "Ġmiserable": 3805,
      "ĠYea": 3806,
      "Ġordinary": 3807,
      "Ġworthy": 3808,
      "Ġhurt": 3809,
      "Ġobserved": 3810,
      "Ġanimal": 3811,
      "stonopolis": 3812,
      "Ġbecomes": 3813,
      "Ġengaged": 3814,
      "Ġdisgust": 3815,
      "Ġsettled": 3816,
      "Ġhence": 3817,
      "Ġrepresent": 3818,
      "Ġstruggle": 3819,
      "ĠGladstonopolis": 3820,
      "atthew": 3821,
      "Mc": 3822,
      "XX": 3823,
      "Ye": 3824,
      "boy": 3825,
      "born": 3826,
      "eer": 3827,
      "hil": 3828,
      "just": 3829,
      "uer": 3830,
      "wed": 3831,
      "Ġtum": 3832,
      "Ġwet": 3833,
      "Ġobe": 3834,
      "Ġbare": 3835,
      "Ġdare": 3836,
      "Ġlose": 3837,
      "asm": 3838,
      "Ġinform": 3839,
      "Ġgate": 3840,
      "imoto": 3841,
      "ĠTwo": 3842,
      "Ġrasc": 3843,
      "ache": 3844,
      "acing": 3845,
      "Ġattend": 3846,
      "Ġshalt": 3847,
      "ĠMick": 3848,
      "ĠMatthew": 3849,
      "Ġunfortun": 3850,
      "Ġexactly": 3851,
      "ĠGables": 3852,
      "Ġjud": 3853,
      "ago": 3854,
      "ption": 3855,
      "Ġimper": 3856,
      "Ġgrin": 3857,
      "Ġflo": 3858,
      "Ġscr": 3859,
      "Ġcoff": 3860,
      "Ġresult": 3861,
      "Ġlamp": 3862,
      "Ġpersons": 3863,
      "Ġbelieved": 3864,
      "Ġemploy": 3865,
      "Ġpurch": 3866,
      "Ġkeeping": 3867,
      "Ġsuffering": 3868,
      "Ġquestions": 3869,
      "Ġtrave": 3870,
      "Ġbreakfast": 3871,
      "Ġcircle": 3872,
      "Ġcarrying": 3873,
      "Ġquietly": 3874,
      "Ġdespair": 3875,
      "Ġexcit": 3876,
      "box": 3877,
      "Ġhatred": 3878,
      "Ġconcerning": 3879,
      "Ġbottom": 3880,
      "Ġbottle": 3881,
      "Ġanti": 3882,
      "ĠYorimoto": 3883,
      "Ġsorry": 3884,
      "Ġignor": 3885,
      "ĠVenner": 3886,
      "IS": 3887,
      "oe": 3888,
      "rid": 3889,
      "rine": 3890,
      "rough": 3891,
      "Ġwire": 3892,
      "Ġmot": 3893,
      "atures": 3894,
      "Ġcro": 3895,
      "Ġcere": 3896,
      "Ġlion": 3897,
      "Ġnarrow": 3898,
      "Ġgest": 3899,
      "semb": 3900,
      "Ġyield": 3901,
      "Ġforty": 3902,
      "iration": 3903,
      "ille": 3904,
      "thy": 3905,
      "Ġmankind": 3906,
      "ribut": 3907,
      "ĠWas": 3908,
      "ĠWest": 3909,
      "Ġnoise": 3910,
      "unted": 3911,
      "Ġoffice": 3912,
      "Ġflowers": 3913,
      "fulness": 3914,
      "ĠJew": 3915,
      "Ġimpression": 3916,
      "onsieur": 3917,
      "Ġendure": 3918,
      "Ġstream": 3919,
      "Ġregular": 3920,
      "Ġdiscovered": 3921,
      "Ġdisciple": 3922,
      "Ġcurse": 3923,
      "Ġbelief": 3924,
      "Ġdouble": 3925,
      "Ġdoesn": 3926,
      "Ġgenerally": 3927,
      "Ġwhisper": 3928,
      "Ġdangerous": 3929,
      "Ġmiddle": 3930,
      "Ġannoy": 3931,
      "Ġwalls": 3932,
      "Ġdestro": 3933,
      "Ġuncons": 3934,
      "Ġdignity": 3935,
      "Ġrevenge": 3936,
      "Ġexceedingly": 3937,
      "sembly": 3938,
      "By": 3939,
      "Per": 3940,
      "from": 3941,
      "have": 3942,
      "wind": 3943,
      "yer": 3944,
      "Ġtempt": 3945,
      "Ġtype": 3946,
      "Ġaud": 3947,
      "reg": 3948,
      "rees": 3949,
      "Ġmock": 3950,
      "Ġbid": 3951,
      "Ġbab": 3952,
      "Ġfet": 3953,
      "Ġcraw": 3954,
      "Ġdue": 3955,
      "Ġdressed": 3956,
      "Ġlust": 3957,
      "Ġgay": 3958,
      "aling": 3959,
      "urai": 3960,
      "Ġsaith": 3961,
      "ĠMaj": 3962,
      "ushing": 3963,
      "Ġexcellent": 3964,
      "Ġworn": 3965,
      "ounds": 3966,
      "ĠNO": 3967,
      "Ġanyone": 3968,
      "Ġperce": 3969,
      "Ġflat": 3970,
      "Ġspec": 3971,
      "Ġspeed": 3972,
      "ivity": 3973,
      "Ġwrote": 3974,
      "Ġapparent": 3975,
      "Ġintrodu": 3976,
      "Ġadventure": 3977,
      "Ġinterp": 3978,
      "ĠOnly": 3979,
      "Ġbarr": 3980,
      "Ġraise": 3981,
      "Ġtrying": 3982,
      "ĠIndeed": 3983,
      "work": 3984,
      "Ġguests": 3985,
      "Ġvarious": 3986,
      "Ġmemory": 3987,
      "Ġexample": 3988,
      "Ġpraise": 3989,
      "Ġcabin": 3990,
      "Ġsamurai": 3991,
      "Chapter": 3992,
      "Never": 3993,
      "bel": 3994,
      "hi": 3995,
      "nett": 3996,
      "oint": 3997,
      "tle": 3998,
      "who": 3999,
      "Ġaim": 4000,
      "ndered": 4001,
      "Ġhouses": 4002,
      "erate": 4003,
      "Ġmill": 4004,
      "Ġbore": 4005,
      "Ġbowed": 4006,
      "Ġfirm": 4007,
      "Ġcaut": 4008,
      "orious": 4009,
      "Ġpill": 4010,
      "Ġpair": 4011,
      "oms": 4012,
      "set": 4013,
      "Ġreward": 4014,
      "Ġforced": 4015,
      "Ġstag": 4016,
      "Ġfro": 4017,
      "Ġmanners": 4018,
      "Ġdoctor": 4019,
      "emmer": 4020,
      "Ġcliff": 4021,
      "anging": 4022,
      "Ġscorn": 4023,
      "Ġcricket": 4024,
      "Ġcalling": 4025,
      "Ġfolly": 4026,
      "Ġgets": 4027,
      "Ġbelt": 4028,
      "Ġtelling": 4029,
      "Ġpersu": 4030,
      "Ġbold": 4031,
      "Ġadvance": 4032,
      "ivers": 4033,
      "Ġslept": 4034,
      "upid": 4035,
      "Ġrelig": 4036,
      "Ġjob": 4037,
      "Ġrule": 4038,
      "Ġmidst": 4039,
      "Ġmagn": 4040,
      "Ġperfectly": 4041,
      "Ġdeclared": 4042,
      "Ġeternal": 4043,
      "ING": 4044,
      "ĠYork": 4045,
      "Ġrevolver": 4046,
      "ourable": 4047,
      "ĠWheel": 4048,
      "Ġelder": 4049,
      "Ġsavage": 4050,
      "ĠWorld": 4051,
      "emmerich": 4052,
      "St": 4053,
      "no": 4054,
      "oot": 4055,
      "pet": 4056,
      "ral": 4057,
      "time": 4058,
      "ux": 4059,
      "zy": 4060,
      "inent": 4061,
      "rent": 4062,
      "oul": 4063,
      "Ġbor": 4064,
      "Ġbay": 4065,
      "Ġbade": 4066,
      "Ġbattle": 4067,
      "Ġbrief": 4068,
      "Ġcovered": 4069,
      "onc": 4070,
      "Ġdag": 4071,
      "Ġdivine": 4072,
      "esides": 4073,
      "Ġnerv": 4074,
      "Ġbew": 4075,
      "Ġbeard": 4076,
      "Ġere": 4077,
      "Ġreck": 4078,
      "Ġstom": 4079,
      "Ġstared": 4080,
      "amm": 4081,
      "Ġshape": 4082,
      "ĠMonsieur": 4083,
      "ili": 4084,
      "ilight": 4085,
      "Ġdefe": 4086,
      "rap": 4087,
      "Ġorgan": 4088,
      "Ġfeatures": 4089,
      "Ġliked": 4090,
      "Ġagreed": 4091,
      "ĠFit": 4092,
      "ĠOld": 4093,
      "Ġbrilli": 4094,
      "Ġprocess": 4095,
      "plic": 4096,
      "Ġdescend": 4097,
      "Ġcrack": 4098,
      "Ġpassage": 4099,
      "Ġserve": 4100,
      "Ġloc": 4101,
      "Ġrecord": 4102,
      "Ġevent": 4103,
      "Ġattr": 4104,
      "Ġdistinct": 4105,
      "Ġsouth": 4106,
      "ĠUp": 4107,
      "Ġcheek": 4108,
      "Ġspeaketh": 4109,
      "Ġappl": 4110,
      "Ġinsisted": 4111,
      "ĠStill": 4112,
      "Ġhonor": 4113,
      "Ġassist": 4114,
      "Ġsurr": 4115,
      "Ġverand": 4116,
      "Ġsubst": 4117,
      "Ġdevils": 4118,
      "Ġtravel": 4119,
      "Ġlieutenant": 4120,
      "Ġsingular": 4121,
      "Ġclosely": 4122,
      "Ġsquare": 4123,
      "Ġhurry": 4124,
      "Ġpopular": 4125,
      "Ġsuggested": 4126,
      "Ġtrembling": 4127,
      "Ġreverence": 4128,
      "Ġevidently": 4129,
      "Ġdelicate": 4130,
      "Ġcigare": 4131,
      "Ġextreme": 4132,
      "Ġinhab": 4133,
      "Ġfarther": 4134,
      "uddenly": 4135,
      "AL": 4136,
      "EL": 4137,
      "GH": 4138,
      "Look": 4139,
      "cent": 4140,
      "cher": 4141,
      "ds": 4142,
      "line": 4143,
      "Ġtired": 4144,
      "Ġbree": 4145,
      "Ġcop": 4146,
      "Ġtow": 4147,
      "Ġdirty": 4148,
      "Ġped": 4149,
      "Ġlest": 4150,
      "ashing": 4151,
      "icem": 4152,
      "icago": 4153,
      "cended": 4154,
      "Ġstars": 4155,
      "Ġstories": 4156,
      "Ġrom": 4157,
      "allow": 4158,
      "ĠSom": 4159,
      "Ġmansion": 4160,
      "Ġkitchen": 4161,
      "Ġneg": 4162,
      "pper": 4163,
      "ĠPro": 4164,
      "Ġexerc": 4165,
      "Ġgovern": 4166,
      "Ġamuse": 4167,
      ".\"\"": 4168,
      "ĠOF": 4169,
      "ĠKemmerich": 4170,
      "Ġpros": 4171,
      "Ġprodu": 4172,
      "ability": 4173,
      "Ġsomeone": 4174,
      "ĠJust": 4175,
      "Ġthinks": 4176,
      "Ġcrown": 4177,
      "Ġglim": 4178,
      "Ġhousehold": 4179,
      "Ġresol": 4180,
      "Ġevidence": 4181,
      "ierce": 4182,
      "Ġhumble": 4183,
      "Ġappre": 4184,
      "Ġopening": 4185,
      "Ġassured": 4186,
      "Ġbadly": 4187,
      "liest": 4188,
      "Ġfinished": 4189,
      "Ġrupe": 4190,
      "ĠNorth": 4191,
      "Ġvalue": 4192,
      "Ġremarkable": 4193,
      "Ġtorn": 4194,
      "Ġfifteen": 4195,
      "Ġdirection": 4196,
      "Ġconcerned": 4197,
      "Ġfields": 4198,
      "Ġsurprise": 4199,
      "ĠBennett": 4200,
      "Ġvictim": 4201,
      "Ġmoral": 4202,
      "Ġauthority": 4203,
      "Ġfolk": 4204,
      "Ġscheme": 4205,
      "Ġobliged": 4206,
      "Ġstomach": 4207,
      "aily": 4208,
      "bid": 4209,
      "ean": 4210,
      "him": 4211,
      "jud": 4212,
      "liness": 4213,
      "uly": 4214,
      "Ġess": 4215,
      "Ġtask": 4216,
      "Ġaid": 4217,
      "Ġwave": 4218,
      "Ġhide": 4219,
      "Ġmood": 4220,
      "Ġben": 4221,
      "Ġfurn": 4222,
      "Ġpa": 4223,
      "Ġpu": 4224,
      "Ġpage": 4225,
      "Ġpicked": 4226,
      "Ġnarr": 4227,
      "omb": 4228,
      "ldom": 4229,
      "idly": 4230,
      "add": 4231,
      "Ġisn": 4232,
      "ĠBattle": 4233,
      "Ġshake": 4234,
      "ĠMar": 4235,
      "Ġdevelop": 4236,
      "aks": 4237,
      "Ġunl": 4238,
      "Ġunknown": 4239,
      "ĠLife": 4240,
      "Ġplaced": 4241,
      "Ġprod": 4242,
      "Ġproject": 4243,
      "Ġolder": 4244,
      "Ġprice": 4245,
      "Ġproof": 4246,
      "Ġdisapp": 4247,
      "Ġflesh": 4248,
      "ĠRe": 4249,
      "ĠRuss": 4250,
      "Ġyounger": 4251,
      "Ġtele": 4252,
      "Ġaccident": 4253,
      "Ġfriendship": 4254,
      "Ġcommunity": 4255,
      "Ġarmed": 4256,
      "Ġchest": 4257,
      "ĠChicago": 4258,
      "Ġintent": 4259,
      "Ġadvice": 4260,
      "Ġawake": 4261,
      "Ġawful": 4262,
      "Ġsuffered": 4263,
      "Ġstepped": 4264,
      "ĠPruss": 4265,
      "Ġincident": 4266,
      "Ġpolit": 4267,
      "Ġpolicem": 4268,
      "Ġholding": 4269,
      "Ġelev": 4270,
      "Ġcreating": 4271,
      "Ġcreature": 4272,
      "Ġfigures": 4273,
      "Ġsquat": 4274,
      "Ġtouched": 4275,
      "Ġpictures": 4276,
      "Ġquarrel": 4277,
      "Ġsolitude": 4278,
      "Ġaccording": 4279,
      "Ġfavourite": 4280,
      "Ġphysical": 4281,
      "Ġintellect": 4282,
      "Ġprofession": 4283,
      "ĠHaie": 4284,
      "Ġlonely": 4285,
      "ED": 4286,
      "One": 4287,
      "de": 4288,
      "iot": 4289,
      "Ġarose": 4290,
      "rey": 4291,
      "Ġmach": 4292,
      "Ġbought": 4293,
      "Ġfount": 4294,
      "Ġdancing": 4295,
      "Ġloose": 4296,
      "Ġinev": 4297,
      "Ġgang": 4298,
      "Ġgrief": 4299,
      "ĠTipto": 4300,
      "Ġsty": 4301,
      "Ġrode": 4302,
      "Ġsubt": 4303,
      "ĠSee": 4304,
      "ested": 4305,
      "Ġupper": 4306,
      "outs": 4307,
      "ĠGo": 4308,
      "Ġabroad": 4309,
      "Ġspace": 4310,
      "orted": 4311,
      "Ġquality": 4312,
      "ĠDel": 4313,
      "icks": 4314,
      "Ġenergy": 4315,
      "Ġdiss": 4316,
      "Ġgreatly": 4317,
      "Ġroll": 4318,
      "ĠThree": 4319,
      "ĠYour": 4320,
      "Ġspect": 4321,
      "Ġspecial": 4322,
      "avier": 4323,
      "Ġguine": 4324,
      "ailed": 4325,
      "Ġstreets": 4326,
      "Ġpresented": 4327,
      "Ġsuppl": 4328,
      "Ġhearing": 4329,
      "Ġsimilar": 4330,
      "Ġbringing": 4331,
      "Ġconduct": 4332,
      "Ġcapable": 4333,
      "Ġmeeting": 4334,
      "Ġordered": 4335,
      "ĠXavier": 4336,
      "Ġmidnight": 4337,
      "aldwin": 4338,
      "Ġmovement": 4339,
      "Ġblessing": 4340,
      "Ġcrowded": 4341,
      "Ġinquired": 4342,
      "Donald": 4343,
      "Ġcounter": 4344,
      "Ġlifted": 4345,
      "Ġwaist": 4346,
      "ĠRoad": 4347,
      "Ġmysterious": 4348,
      "ĠTiptoff": 4349,
      "\",": 4350,
      ".,": 4351,
      "Nay": 4352,
      "back": 4353,
      "cut": 4354,
      "count": 4355,
      "fa": 4356,
      "oid": 4357,
      "oqu": 4358,
      "sc": 4359,
      "sm": 4360,
      "Ġain": 4361,
      "Ġsne": 4362,
      "rels": 4363,
      "Ġbod": 4364,
      "itiz": 4365,
      "Ġfil": 4366,
      "Ġpause": 4367,
      "Ġpushed": 4368,
      "Ġpipe": 4369,
      "legh": 4370,
      "stairs": 4371,
      "Ġformed": 4372,
      "alities": 4373,
      "Ġstock": 4374,
      "Ġmyst": 4375,
      "ĠHon": 4376,
      "ĠBer": 4377,
      "ĠBaker": 4378,
      "ainted": 4379,
      "ĠAgain": 4380,
      "Ġchoose": 4381,
      "ĠPur": 4382,
      "ĠLah": 4383,
      "umps": 4384,
      "Ġleaves": 4385,
      "ĠFr": 4386,
      "Ġbran": 4387,
      "Ġbrain": 4388,
      "inks": 4389,
      "Ġimmen": 4390,
      "Ġflower": 4391,
      "Ġthrust": 4392,
      "Ġeverybody": 4393,
      "Ġfold": 4394,
      "Ġnights": 4395,
      "Ġspiritual": 4396,
      "ĠChar": 4397,
      "Ġaffected": 4398,
      "Ġfalling": 4399,
      "ĠTHAT": 4400,
      "Ġsooner": 4401,
      "...": 4402,
      "Ġhaste": 4403,
      "zsim": 4404,
      "Ġfinal": 4405,
      "hamlegh": 4406,
      "Ġdriven": 4407,
      "Ġpossessed": 4408,
      "Ġfairly": 4409,
      "going": 4410,
      "Ġarranged": 4411,
      "Ġgaze": 4412,
      "Ġteaching": 4413,
      "Ġaccomplished": 4414,
      "Ġgallant": 4415,
      "Ġdreadful": 4416,
      "ĠMinister": 4417,
      "Ġprogress": 4418,
      "ĠMajesty": 4419,
      "ĠFitzsim": 4420,
      "ĠLahore": 4421,
      "Ġimmense": 4422,
      "Did": 4423,
      "Mr": 4424,
      "eel": 4425,
      "whe": 4426,
      "Ġtight": 4427,
      "Ġmeth": 4428,
      "Ġmotion": 4429,
      "Ġbal": 4430,
      "Ġbaz": 4431,
      "Ġfest": 4432,
      "Ġcult": 4433,
      "Ġcries": 4434,
      "Ġpan": 4435,
      "Ġpig": 4436,
      "Ġpressed": 4437,
      "Ġheels": 4438,
      "Ġgables": 4439,
      "otus": 4440,
      "Ġstupid": 4441,
      "Ġrul": 4442,
      "Ġrude": 4443,
      "Ġhadn": 4444,
      "Ġange": 4445,
      "ĠHack": 4446,
      "ĠBody": 4447,
      "key": 4448,
      "Ġdebt": 4449,
      "ĠShamlegh": 4450,
      "Ġnoon": 4451,
      "Ġfee": 4452,
      "ĠLotus": 4453,
      "Ġwilling": 4454,
      "Ġaband": 4455,
      "Ġdidst": 4456,
      "Ġsomewhere": 4457,
      "Ġtwilight": 4458,
      "Ġenorm": 4459,
      "Ġgrim": 4460,
      "oyal": 4461,
      "then": 4462,
      "othsay": 4463,
      "Ġbegun": 4464,
      "Ġdistant": 4465,
      "Ġdrag": 4466,
      "Ġwalking": 4467,
      "Ġheavily": 4468,
      "Ġeleg": 4469,
      "Ġbuy": 4470,
      "Ġprophe": 4471,
      "Ġabsurd": 4472,
      "Ġseeketh": 4473,
      "Ġvalu": 4474,
      "Ġwatching": 4475,
      "Ġnaturally": 4476,
      "ounced": 4477,
      "Ġguns": 4478,
      "Ġgrandfather": 4479,
      "Ġbenef": 4480,
      "Ġshells": 4481,
      "Ġprevent": 4482,
      "Ġdressing": 4483,
      "Ġpunishment": 4484,
      "Ġmoonlight": 4485,
      "Ġsufficient": 4486,
      "Ġmentioned": 4487,
      "Ġdoctrine": 4488,
      "Ġsuspic": 4489,
      "Ġpopulace": 4490,
      "Ġexcitement": 4491,
      "ĠBattleax": 4492,
      "ĠFitzsimons": 4493,
      "Al": 4494,
      "Are": 4495,
      "Go": 4496,
      "bour": 4497,
      "case": 4498,
      "eas": 4499,
      "gu": 4500,
      "part": 4501,
      "heard": 4502,
      "Ġwre": 4503,
      "Ġwed": 4504,
      "Ġwag": 4505,
      "erk": 4506,
      "Ġmask": 4507,
      "Ġmaj": 4508,
      "Ġbreat": 4509,
      "itive": 4510,
      "ision": 4511,
      "Ġfill": 4512,
      "enning": 4513,
      "Ġthres": 4514,
      "Ġdwell": 4515,
      "orough": 4516,
      "Ġloss": 4517,
      "Ġinformed": 4518,
      "utation": 4519,
      "Ġegg": 4520,
      "Ġwhither": 4521,
      "Ġstones": 4522,
      "Ġmel": 4523,
      "Ġnotes": 4524,
      "Ġshirt": 4525,
      "Ġfruit": 4526,
      "Ġsev": 4527,
      "Ġseat": 4528,
      "Ġseldom": 4529,
      "rily": 4530,
      "ĠWay": 4531,
      "Ġdoll": 4532,
      "ulu": 4533,
      "ĠCan": 4534,
      "uses": 4535,
      "using": 4536,
      "resp": 4537,
      "Ġfeed": 4538,
      "Ġwhenever": 4539,
      "ĠKenning": 4540,
      "ept": 4541,
      "Ġthanks": 4542,
      "pless": 4543,
      "ĠThose": 4544,
      "Ġswift": 4545,
      "Ġglow": 4546,
      "soci": 4547,
      "lessly": 4548,
      "Ġindign": 4549,
      "Ġcontent": 4550,
      "Ġimpro": 4551,
      "Ġcareful": 4552,
      "Ġdeeper": 4553,
      "Ġ18": 4554,
      "Ġcontinually": 4555,
      "Ġcreate": 4556,
      "Ġburden": 4557,
      "Ġcreated": 4558,
      "ĠPerhaps": 4559,
      "Ġmadness": 4560,
      "Ġcolonel": 4561,
      "Ġprofit": 4562,
      "Ġclearly": 4563,
      "Ġsixty": 4564,
      "coat": 4565,
      "Ġinterested": 4566,
      "Ġfighting": 4567,
      "Ġlistened": 4568,
      "Ġarrival": 4569,
      "Ġrequired": 4570,
      "Ġimagine": 4571,
      "Ġdescribed": 4572,
      "Ġinquir": 4573,
      "Ġwriting": 4574,
      "Ġhopes": 4575,
      "ĠHindu": 4576,
      "Ġutterly": 4577,
      "Ġtitle": 4578,
      "Ġunfortunate": 4579,
      "Ġpedig": 4580,
      "ĠHackton": 4581,
      "ĠKennington": 4582,
      "Hara": 4583,
      "Sh": 4584,
      "Very": 4585,
      "VII": 4586,
      "Wh": 4587,
      "Zarathustra": 4588,
      "bow": 4589,
      "bell": 4590,
      "five": 4591,
      "hus": 4592,
      "Ġing": 4593,
      "Ġaver": 4594,
      "Ġharsh": 4595,
      "Ġmal": 4596,
      "Ġmaketh": 4597,
      "Ġbill": 4598,
      "itor": 4599,
      "Ġdus": 4600,
      "Ġpor": 4601,
      "Ġpisto": 4602,
      "asons": 4603,
      "Ġheir": 4604,
      "ĠTake": 4605,
      "ali": 4606,
      "Ġstraw": 4607,
      "Ġrib": 4608,
      "ifted": 4609,
      "ĠBry": 4610,
      "ĠBudd": 4611,
      "keeper": 4612,
      "Ġshri": 4613,
      "Ġfrown": 4614,
      "race": 4615,
      "Ġbutter": 4616,
      "Ġalas": 4617,
      "ieutenant": 4618,
      "antore": 4619,
      "unting": 4620,
      "ĠPl": 4621,
      "Ġknee": 4622,
      "ember": 4623,
      "athing": 4624,
      "Ġlevel": 4625,
      "Ġamid": 4626,
      "Ġqueer": 4627,
      "Ġthank": 4628,
      "udence": 4629,
      "Ġrolled": 4630,
      "Ġscound": 4631,
      "Ġprefer": 4632,
      "ĠYet": 4633,
      "Ġcoach": 4634,
      "ancy": 4635,
      "Ġslipped": 4636,
      "Ġturns": 4637,
      "Ġasking": 4638,
      "Ġcommunic": 4639,
      "Ġinstru": 4640,
      "Ġclever": 4641,
      "Ġawait": 4642,
      "Ġneeds": 4643,
      "Ġhelm": 4644,
      "Ġhelpless": 4645,
      "Ġcarefully": 4646,
      "Ġwishes": 4647,
      "Ġjoin": 4648,
      "Ġcapital": 4649,
      "ĠSearch": 4650,
      "Ġanger": 4651,
      "Ġfavor": 4652,
      "Ġobsc": 4653,
      "Ġbegged": 4654,
      "Ġequal": 4655,
      "Ġportra": 4656,
      "Ġcontrary": 4657,
      "Ġmessage": 4658,
      "Ġrespons": 4659,
      "Ġprinc": 4660,
      "looking": 4661,
      "Ġshelter": 4662,
      "McMurdo": 4663,
      "Ġprosper": 4664,
      "ĠDelhi": 4665,
      "ĠBryan": 4666,
      "OW": 4667,
      "iable": 4668,
      "low": 4669,
      "lier": 4670,
      "mos": 4671,
      "phere": 4672,
      "held": 4673,
      "Ġtheory": 4674,
      "reot": 4675,
      "Ġhunt": 4676,
      "Ġthorough": 4677,
      "aries": 4678,
      "aning": 4679,
      "Ġparent": 4680,
      "Ġinner": 4681,
      "Ġinex": 4682,
      "Ġnigh": 4683,
      "Ġham": 4684,
      "Ġga": 4685,
      "ental": 4686,
      "Ġresem": 4687,
      "Ġrendered": 4688,
      "Ġiss": 4689,
      "Ġstall": 4690,
      "Ġride": 4691,
      "Ġanch": 4692,
      "oops": 4693,
      "Ġshock": 4694,
      "Ġframe": 4695,
      "Ġseason": 4696,
      "arded": 4697,
      "ĠWould": 4698,
      "ctions": 4699,
      "ĠCousin": 4700,
      "asted": 4701,
      "Ġchim": 4702,
      "Ġchamp": 4703,
      "Ġsheep": 4704,
      "Ġfeared": 4705,
      "Ġunp": 4706,
      "uments": 4707,
      "oses": 4708,
      "Ġusually": 4709,
      "Ġmoreover": 4710,
      "Ġproc": 4711,
      "Ġknowest": 4712,
      "Ġclub": 4713,
      "Ġgrat": 4714,
      "Ġbetr": 4715,
      "Ġcalls": 4716,
      "Ġhollow": 4717,
      "Ġcontem": 4718,
      "Ġserious": 4719,
      "Ġloving": 4720,
      "bye": 4721,
      "ĠPyncheons": 4722,
      "Ġnatives": 4723,
      "Ġinside": 4724,
      "Ġadvanced": 4725,
      "Ġfully": 4726,
      "Ġdifference": 4727,
      "Ġinvest": 4728,
      "Ġdeeply": 4729,
      "Ġswear": 4730,
      "Ġvision": 4731,
      "Ġeleven": 4732,
      "Ġpoints": 4733,
      "Ġsigns": 4734,
      "Ġseeking": 4735,
      "Ġhurried": 4736,
      "Ġmarket": 4737,
      "Ġutmost": 4738,
      "Ġcenter": 4739,
      "âĢĶâĢĶâĢĺ": 4740,
      "Ġcomfortable": 4741,
      "Ġportion": 4742,
      "Ġorigin": 4743,
      "Ġvanished": 4744,
      "Ġintellig": 4745,
      "Ġgloomy": 4746,
      "Ġabsolutely": 4747,
      "Ġstrangers": 4748,
      "Ġwondered": 4749,
      "Ġugly": 4750,
      "Ġdegree": 4751,
      "uerreot": 4752,
      "Ġunconscious": 4753,
      "Ġinhabit": 4754,
      "othsayer": 4755,
      "Ġpedigree": 4756,
      "See": 4757,
      "book": 4758,
      "lo": 4759,
      "lock": 4760,
      "ointed": 4761,
      "rant": 4762,
      "Ġident": 4763,
      "hearted": 4764,
      "Ġwiz": 4765,
      "Ġoath": 4766,
      "Ġbent": 4767,
      "ites": 4768,
      "itan": 4769,
      "Ġfought": 4770,
      "Ġfierce": 4771,
      "Ġcove": 4772,
      "Ġdull": 4773,
      "Ġdaily": 4774,
      "Ġpant": 4775,
      "lebr": 4776,
      "Ġep": 4777,
      "Ġeast": 4778,
      "verty": 4779,
      "ĠTr": 4780,
      "Ġrig": 4781,
      "Ġrage": 4782,
      "acles": 4783,
      "Ġatmos": 4784,
      "ĠBesides": 4785,
      "Ġshaking": 4786,
      "Ġsevere": 4787,
      "Ġdoors": 4788,
      "inded": 4789,
      "Ġfever": 4790,
      "Ġliber": 4791,
      "Ġexh": 4792,
      "ĠLuck": 4793,
      "ĠFl": 4794,
      "ĠFrance": 4795,
      "Ġbrow": 4796,
      "Ġblank": 4797,
      "Ġhanded": 4798,
      "Ġpoverty": 4799,
      "ĠJaff": 4800,
      "Ġpreac": 4801,
      "Ġprejud": 4802,
      "Ġdesired": 4803,
      "Ġcrit": 4804,
      "lessness": 4805,
      "issa": 4806,
      "Ġtend": 4807,
      "Ġimpul": 4808,
      "Ġenthus": 4809,
      "Ġbegins": 4810,
      "Ġrepublic": 4811,
      "Ġdiscover": 4812,
      "ĠAssembly": 4813,
      "Ġruns": 4814,
      "Ġsubm": 4815,
      "eyed": 4816,
      "Ġideas": 4817,
      "Ġcrew": 4818,
      "Ġacquired": 4819,
      "Ġsituation": 4820,
      "Ġdeparted": 4821,
      "Ġpriests": 4822,
      "Ġcentury": 4823,
      "ounc": 4824,
      "Ġexperi": 4825,
      "ĠEverything": 4826,
      "Ġviolent": 4827,
      "haust": 4828,
      "Ġprisoner": 4829,
      "Ġparticularly": 4830,
      "Ġshouted": 4831,
      "Ġleaned": 4832,
      "Ġwarning": 4833,
      "Ġodious": 4834,
      "Ġdaguerreot": 4835,
      "Ġrupees": 4836,
      "Ġthreshold": 4837,
      "antorek": 4838,
      "Ġatmosphere": 4839,
      "Ġenthusi": 4840,
      ");": 4841,
      "Ay": 4842,
      "Have": 4843,
      "Your": 4844,
      "aul": 4845,
      "bac": 4846,
      "iance": 4847,
      "ka": 4848,
      "sing": 4849,
      "ville": 4850,
      "wing": 4851,
      "ye": 4852,
      "Ġwore": 4853,
      "Ġsilly": 4854,
      "erity": 4855,
      "Ġmult": 4856,
      "Ġban": 4857,
      "Ġfare": 4858,
      "Ġcher": 4859,
      "Ġcard": 4860,
      "Ġtoss": 4861,
      "onet": 4862,
      "Ġdat": 4863,
      "Ġpin": 4864,
      "ĠIm": 4865,
      "Ġbelly": 4866,
      "Ġhaven": 4867,
      "vey": 4868,
      "Ġwhist": 4869,
      "Ġult": 4870,
      "cending": 4871,
      "Ġrear": 4872,
      "ads": 4873,
      "urity": 4874,
      "Ġruff": 4875,
      "Ġrising": 4876,
      "Ġmeasure": 4877,
      "aches": 4878,
      "ĠBet": 4879,
      "Ġsell": 4880,
      "ĠMason": 4881,
      "astic": 4882,
      "Ġunre": 4883,
      "ummer": 4884,
      "ĠGood": 4885,
      "ĠGener": 4886,
      "ĠKil": 4887,
      "urely": 4888,
      "Ġtrif": 4889,
      "Ġbrut": 4890,
      "Ġbloom": 4891,
      "Ġoffer": 4892,
      "Ġgrad": 4893,
      "Ġflight": 4894,
      "Ġflame": 4895,
      "ĠThy": 4896,
      "Ġadop": 4897,
      "Ġnevertheless": 4898,
      "Ġdesper": 4899,
      "Ġpartly": 4900,
      "acht": 4901,
      "Ġslip": 4902,
      "cles": 4903,
      "Ġresc": 4904,
      "Ġcompre": 4905,
      "ixt": 4906,
      "Ġcommenced": 4907,
      "Ġdrank": 4908,
      "ĠBright": 4909,
      "Ġobed": 4910,
      "Ġobst": 4911,
      "Ġregarding": 4912,
      "Ġartic": 4913,
      "Ġsupper": 4914,
      "Ġterr": 4915,
      "Ġafford": 4916,
      "Ġsuffer": 4917,
      "Ġsteam": 4918,
      "Ġlaws": 4919,
      "Ġ17": 4920,
      "Ġinfinite": 4921,
      "Ġmoving": 4922,
      "Ġideal": 4923,
      "Ġsinging": 4924,
      "Ġfearful": 4925,
      "Ġcorpse": 4926,
      "ground": 4927,
      "Ġtroubled": 4928,
      "Ġmilk": 4929,
      "Ġfrightful": 4930,
      "Ġceased": 4931,
      "Ġbecometh": 4932,
      "Ġeagle": 4933,
      "Ġeternity": 4934,
      "ĠWhite": 4935,
      "Ġefforts": 4936,
      "Ġlimbs": 4937,
      "Ġclouds": 4938,
      "Ġsufficiently": 4939,
      "Ġstudy": 4940,
      "Ġtreated": 4941,
      "Ġturb": 4942,
      "Ġpermitted": 4943,
      "Ġkingdom": 4944,
      "Ġpetty": 4945,
      "Ġdisciples": 4946,
      "icycle": 4947,
      "Ġweapon": 4948,
      "Ġinformation": 4949,
      "Ġchimney": 4950,
      "ĠJaffrey": 4951,
      "Give": 4952,
      "TER": 4953,
      "aved": 4954,
      "eem": 4955,
      "gun": 4956,
      "lain": 4957,
      "oes": 4958,
      "would": 4959,
      "yal": 4960,
      "yss": 4961,
      "Ġtro": 4962,
      "Ġtyr": 4963,
      "Ġtables": 4964,
      "Ġsides": 4965,
      "rer": 4966,
      "Ġmud": 4967,
      "Ġcared": 4968,
      "Ġdug": 4969,
      "oring": 4970,
      "ashes": 4971,
      "Ġbeating": 4972,
      "Ġgas": 4973,
      "otted": 4974,
      "enth": 4975,
      "Ġrene": 4976,
      "ading": 4977,
      "Ġstamp": 4978,
      "Ġstoop": 4979,
      "Ġric": 4980,
      "Ġripe": 4981,
      "Ġmeal": 4982,
      "ĠBaldwin": 4983,
      "Ġseized": 4984,
      "ĠME": 4985,
      "ilty": 4986,
      "ĠSw": 4987,
      "ardon": 4988,
      "Ġmanif": 4989,
      "geon": 4990,
      "ĠWH": 4991,
      "ustri": 4992,
      "Ġnearest": 4993,
      "ieve": 4994,
      "Ġvul": 4995,
      "Ġvener": 4996,
      "Ġventure": 4997,
      "Ġvague": 4998,
      "Ġexch": 4999,
      "ĠLike": 5000,
      "Ġabyss": 5001,
      "ĠFin": 5002,
      "ĠFred": 5003,
      "ĠEs": 5004,
      "Ġtrack": 5005,
      "elt": 5006,
      "Ġsomehow": 5007,
      "Ġdisag": 5008,
      "ĠThough": 5009,
      "Ġslay": 5010,
      "Ġlovely": 5011,
      "irlstone": 5012,
      "Ġserpent": 5013,
      "Ġnewsp": 5014,
      "Ġlock": 5015,
      "Ġdrug": 5016,
      "Ġtells": 5017,
      "Ġfinding": 5018,
      "Ġdistress": 5019,
      "Ġdiscern": 5020,
      "Ġinstr": 5021,
      "Ġemotion": 5022,
      "Ġreturning": 5023,
      "Ġterrit": 5024,
      "Ġaffl": 5025,
      "Ġappears": 5026,
      "Ġconfident": 5027,
      "Ġconfidence": 5028,
      "Ġinvol": 5029,
      "Ġrefused": 5030,
      "Ġsteal": 5031,
      "Ġtrail": 5032,
      "Ġburied": 5033,
      "bridge": 5034,
      "Ġacquire": 5035,
      "Ġshadows": 5036,
      "Ġcorresp": 5037,
      "ermissa": 5038,
      "Ġleading": 5039,
      "Ġtransp": 5040,
      "Ġmarked": 5041,
      "ĠBefore": 5042,
      "Ġmistake": 5043,
      "Ġmistress": 5044,
      "Ġdelighted": 5045,
      "Ġbeaten": 5046,
      "Ġsuperior": 5047,
      "Ġimportance": 5048,
      "Ġenjoyed": 5049,
      "Ġfailed": 5050,
      "reditary": 5051,
      "Ġdeposit": 5052,
      "Ġcompletely": 5053,
      "Ġmaiden": 5054,
      "Ġrosary": 5055,
      "Ġsucceeded": 5056,
      "Ġconnection": 5057,
      "Ġunhappy": 5058,
      "Perhaps": 5059,
      "Ġnervous": 5060,
      "Ġpoliceman": 5061,
      "Ġstyle": 5062,
      "Ġguineas": 5063,
      "ĠCharles": 5064,
      "Ġshriek": 5065,
      "Ġnewspap": 5066,
      "Ġcorrespond": 5067,
      ".)": 5068,
      "An": 5069,
      "IV": 5070,
      "Will": 5071,
      "bone": 5072,
      "face": 5073,
      "ford": 5074,
      "ius": 5075,
      "ker": 5076,
      "oft": 5077,
      "rain": 5078,
      "tic": 5079,
      "vest": 5080,
      "writ": 5081,
      "Ġ4": 5082,
      "Ġahead": 5083,
      "Ġsits": 5084,
      "Ġhoney": 5085,
      "Ġmat": 5086,
      "Ġming": 5087,
      "Ġmile": 5088,
      "Ġbond": 5089,
      "Ġfac": 5090,
      "Ġcri": 5091,
      "Ġtobac": 5092,
      "Ġdanc": 5093,
      "Ġnice": 5094,
      "Ġnamed": 5095,
      "Ġhaught": 5096,
      "Ġassoci": 5097,
      "Ġreasons": 5098,
      "uries": 5099,
      "Ġstaring": 5100,
      "Ġstairs": 5101,
      "Ġate": 5102,
      "iform": 5103,
      "ĠBE": 5104,
      "ĠAND": 5105,
      "Ġmanaged": 5106,
      "raham": 5107,
      "Ġbutler": 5108,
      "Ġupward": 5109,
      "Ġwouldst": 5110,
      "Ġchose": 5111,
      "ateful": 5112,
      "ĠLieutenant": 5113,
      "oser": 5114,
      "ighed": 5115,
      "Ġleap": 5116,
      "ĠGive": 5117,
      "Ġspur": 5118,
      "Ġgoal": 5119,
      "Ġamb": 5120,
      "aud": 5121,
      "Ġarrest": 5122,
      "Ġanyhow": 5123,
      "Ġenl": 5124,
      "Ġflow": 5125,
      "Ġpear": 5126,
      "Ġpreced": 5127,
      "Ġprecious": 5128,
      "Ġundert": 5129,
      "Ġremoved": 5130,
      "Ġswung": 5131,
      "Ġdesign": 5132,
      "Ġglanced": 5133,
      "Ġthroughout": 5134,
      "attering": 5135,
      "Ġlover": 5136,
      "Ġreconc": 5137,
      "Ġboot": 5138,
      "Ġregret": 5139,
      "Ġspeaks": 5140,
      "Ġworks": 5141,
      "Ġworked": 5142,
      "Ġeloqu": 5143,
      "Ġrefer": 5144,
      "Ġstead": 5145,
      "Ġwarri": 5146,
      "Ġhastily": 5147,
      "Ġbusy": 5148,
      "Ġgeneration": 5149,
      "Ġaddressed": 5150,
      "Ġeleph": 5151,
      "Ġruined": 5152,
      "Ġdecent": 5153,
      "Ġadmitted": 5154,
      "Ġmode": 5155,
      "Ġinteresting": 5156,
      "Ġtroubles": 5157,
      "Ġpainful": 5158,
      "ecause": 5159,
      "Ġwounds": 5160,
      "Ġviews": 5161,
      "Ġimmediate": 5162,
      "Ġstrike": 5163,
      "Ġhungry": 5164,
      "Ġdogs": 5165,
      "Ġhanging": 5166,
      "Ġoccupied": 5167,
      "Ġprovided": 5168,
      "Ġmember": 5169,
      "Ġsplendour": 5170,
      "Ġsatisfaction": 5171,
      "Ġwickedness": 5172,
      "Ġcowardly": 5173,
      "Ġextraord": 5174,
      "Ġflee": 5175,
      "Ġconsciousness": 5176,
      "ttie": 5177,
      "Ġmurmured": 5178,
      "Ġdisappeared": 5179,
      "Ġeducation": 5180,
      "Ġveranda": 5181,
      "Ġmystery": 5182,
      "ĠPuritan": 5183,
      "ĠBodymaster": 5184,
      "Ġenormous": 5185,
      "Ġelegant": 5186,
      "Ġanchor": 5187,
      "Ġinvestig": 5188,
      "CE": 5189,
      "Her": 5190,
      "IR": 5191,
      "IGH": 5192,
      "car": 5193,
      "hip": 5194,
      "kim": 5195,
      "mark": 5196,
      "olf": 5197,
      "uced": 5198,
      "wixt": 5199,
      "Ġ5": 5200,
      "Ġwives": 5201,
      "Ġsaint": 5202,
      "Ġfaded": 5203,
      "eding": 5204,
      "Ġcards": 5205,
      "arse": 5206,
      "Ġnine": 5207,
      "Ġhakim": 5208,
      "Ġgather": 5209,
      "Ġgrie": 5210,
      "Ġyonder": 5211,
      "idy": 5212,
      "entures": 5213,
      "ĠTO": 5214,
      "ĠToo": 5215,
      "ĠTell": 5216,
      "alian": 5217,
      "Ġweather": 5218,
      "Ġstum": 5219,
      "Ġrot": 5220,
      "Ġanew": 5221,
      "Ġseas": 5222,
      "Ġsand": 5223,
      "ĠMad": 5224,
      "ilities": 5225,
      "Ġsoil": 5226,
      "Ġsoothsayer": 5227,
      "Ġdeb": 5228,
      "ĠWar": 5229,
      "Ġaloud": 5230,
      "ieved": 5231,
      "ousers": 5232,
      "Ġven": 5233,
      "unken": 5234,
      "ĠPun": 5235,
      "akened": 5236,
      "Ġcompelled": 5237,
      "ĠGame": 5238,
      "Ġagony": 5239,
      "ĠOut": 5240,
      "ĠKantorek": 5241,
      "Ġplenty": 5242,
      "ishness": 5243,
      "Ġyeh": 5244,
      "Ġblows": 5245,
      "Ġperse": 5246,
      "Ġscowl": 5247,
      "Ġeverywhere": 5248,
      "Ġcopper": 5249,
      "Ġcamel": 5250,
      "Ġremote": 5251,
      "Ġdesert": 5252,
      "Ġglory": 5253,
      "Ġconsol": 5254,
      "Ġended": 5255,
      "Ġguilty": 5256,
      "Ġcounty": 5257,
      "Ġrepro": 5258,
      "Ġreputation": 5259,
      "Ġlightning": 5260,
      "Ġhorrible": 5261,
      "Ġinterview": 5262,
      "Ġintend": 5263,
      "Ġverse": 5264,
      "Ġnorth": 5265,
      "Ġdevoted": 5266,
      "Ġmisfort": 5267,
      "Ġmischief": 5268,
      "Ġvisible": 5269,
      "Ġbedroom": 5270,
      "Ġfinest": 5271,
      "Ġadmit": 5272,
      "Ġgrowing": 5273,
      "ustomed": 5274,
      "Ġarrive": 5275,
      "Ġwarmth": 5276,
      "ĠAnother": 5277,
      "Ġsoftly": 5278,
      "Ġmedit": 5279,
      "Ġbecoming": 5280,
      "Ġfancied": 5281,
      "Ġwooden": 5282,
      "Ġgazed": 5283,
      "Ġpalace": 5284,
      "Ġundou": 5285,
      "Ġprotect": 5286,
      "Ġrailway": 5287,
      "Ġhoped": 5288,
      "Ġbeasts": 5289,
      "Ġapartments": 5290,
      "ĠMacDonald": 5291,
      "Ġmurmur": 5292,
      "Ġastonishment": 5293,
      "Ġgenu": 5294,
      "ĠMorris": 5295,
      "Ġlonesome": 5296,
      "ITY": 5297,
      "Ġinspector": 5298,
      "Ġphilosophy": 5299,
      "Ġaccompany": 5300,
      "Ġdistinguished": 5301,
      "Ġrifle": 5302,
      "Ġapparently": 5303,
      "Ġbewild": 5304,
      "Ġbrilliant": 5305,
      "itizens": 5306,
      "Ġportrait": 5307,
      "Ġwizard": 5308,
      "ĠGeneral": 5309,
      "ĠFreder": 5310,
      "Ġdisagree": 5311,
      "Ġmisfortune": 5312,
      "Ch": 5313,
      "Ex": 5314,
      "Hol": 5315,
      "after": 5316,
      "ball": 5317,
      "deal": 5318,
      "law": 5319,
      "more": 5320,
      "mony": 5321,
      "rated": 5322,
      "tin": 5323,
      "vag": 5324,
      "Ġ-": 5325,
      "Ġtar": 5326,
      "Ġtrench": 5327,
      "Ġtales": 5328,
      "rers": 5329,
      "Ġhorn": 5330,
      "Ġbomb": 5331,
      "atives": 5332,
      "isters": 5333,
      "eds": 5334,
      "Ġtoday": 5335,
      "Ġthunder": 5336,
      "Ġpil": 5337,
      "Ġlou": 5338,
      "Ġlawn": 5339,
      "Ġlux": 5340,
      "ĠIT": 5341,
      "Ġbearing": 5342,
      "Ġyacht": 5343,
      "iding": 5344,
      "Ġwaste": 5345,
      "Ġstair": 5346,
      "Ġrush": 5347,
      "Ġmeas": 5348,
      "Ġdepend": 5349,
      "ĠSik": 5350,
      "peak": 5351,
      "Ġkick": 5352,
      "rawn": 5353,
      "Ġdocum": 5354,
      "Ġneat": 5355,
      "ĠCom": 5356,
      "ĠCould": 5357,
      "Ġaloft": 5358,
      "Ġknife": 5359,
      "ista": 5360,
      "Ġcomb": 5361,
      "odge": 5362,
      "Ġjest": 5363,
      "ivered": 5364,
      "ĠNay": 5365,
      "Ġtrade": 5366,
      "open": 5367,
      "Ġsomebody": 5368,
      "Ġimage": 5369,
      "!\"\"": 5370,
      "Ġstrict": 5371,
      "ĠRaj": 5372,
      "Ġswore": 5373,
      "Ġdesir": 5374,
      "Ġdesires": 5375,
      "Ġwrath": 5376,
      "Ġdrown": 5377,
      "Ġobv": 5378,
      "Ġmarvel": 5379,
      "Ġsmaller": 5380,
      "ints": 5381,
      "Ġkindness": 5382,
      "Ġpurse": 5383,
      "plex": 5384,
      "Ġintim": 5385,
      "Ġintention": 5386,
      "Ġassure": 5387,
      "Ġgenerous": 5388,
      "Ġexplan": 5389,
      "Ġhelped": 5390,
      "Ġthousands": 5391,
      "Ġcapt": 5392,
      "Ġacquainted": 5393,
      "Ġfootst": 5394,
      "Ġnecessity": 5395,
      "Ġobserv": 5396,
      "REAT": 5397,
      "Ġrecognized": 5398,
      "Ġrecognize": 5399,
      "Ġfatal": 5400,
      "ĠChristian": 5401,
      "Ġhiding": 5402,
      "Ġconcealed": 5403,
      "Ġfaithful": 5404,
      "Ġviolence": 5405,
      "Ġmuttered": 5406,
      "ĠParis": 5407,
      "Ġmurdered": 5408,
      "ĠGermany": 5409,
      "ĠAmerican": 5410,
      "Ġendeavoured": 5411,
      "Ġlonesom": 5412,
      "Ġcomrades": 5413,
      "Ġclimb": 5414,
      "Ġcoffee": 5415,
      "Ġceremony": 5416,
      "Ġreligion": 5417,
      "Ġsurrounded": 5418,
      "eanwhile": 5419,
      "ĠLucknow": 5420,
      "Ġvulgar": 5421,
      "Ġtobacco": 5422,
      "Ġgenuine": 5423,
      "God": 5424,
      "OM": 5425,
      "Some": 5426,
      "good": 5427,
      "gue": 5428,
      "hum": 5429,
      "rate": 5430,
      "table": 5431,
      "inced": 5432,
      "Ġmare": 5433,
      "Ġbuff": 5434,
      "Ġbones": 5435,
      "Ġcot": 5436,
      "Ġdu": 5437,
      "Ġdish": 5438,
      "Ġlines": 5439,
      "Ġbeheld": 5440,
      "ley": 5441,
      "oting": 5442,
      "otest": 5443,
      "ician": 5444,
      "Ġeh": 5445,
      "Ġforbid": 5446,
      "ĠAmes": 5447,
      "Ġsees": 5448,
      "ĠSch": 5449,
      "ĠSuddenly": 5450,
      "Ġkins": 5451,
      "ulf": 5452,
      "iece": 5453,
      "usp": 5454,
      "Ġchin": 5455,
      "Ġchances": 5456,
      "ourn": 5457,
      "Ġunwill": 5458,
      "ĠLaw": 5459,
      "ĠGrand": 5460,
      "Ġsphere": 5461,
      "ĠEl": 5462,
      "Ġtrousers": 5463,
      "âĢĶâĢĿ": 5464,
      "Ġqualities": 5465,
      "ĠDuring": 5466,
      "Ġprince": 5467,
      "Ġgracious": 5468,
      "Ġperpet": 5469,
      "Ġfled": 5470,
      "Ġthrice": 5471,
      "hole": 5472,
      "Ġspend": 5473,
      "Ġswept": 5474,
      "Ġinde": 5475,
      "Ġretired": 5476,
      "ĠBrother": 5477,
      "Ġlighted": 5478,
      "ĠVermissa": 5479,
      "Ġcuri": 5480,
      "Ġfalls": 5481,
      "Ġinvis": 5482,
      "Ġinvited": 5483,
      "Ġmisery": 5484,
      "coming": 5485,
      "Ġexplos": 5486,
      "Ġpatient": 5487,
      "Ġcolumn": 5488,
      "Ġabsence": 5489,
      "Ġbegging": 5490,
      "Ġriding": 5491,
      "Ġtemple": 5492,
      "Ġneighbor": 5493,
      "Ġprayer": 5494,
      "Ġdescription": 5495,
      "Ġflying": 5496,
      "Ġconstantly": 5497,
      "Ġidol": 5498,
      "poral": 5499,
      "Ġextravag": 5500,
      "Ġwandering": 5501,
      "Ġstretched": 5502,
      "Ġdomest": 5503,
      "Ġchaplain": 5504,
      "Ġimpatient": 5505,
      "Ġhospital": 5506,
      "Ġdisturbed": 5507,
      "Ġcurtains": 5508,
      "Ġacknowled": 5509,
      "Ġacknowledge": 5510,
      "Ġgleam": 5511,
      "Ġfrequent": 5512,
      "Ġinterrupted": 5513,
      "Ġobey": 5514,
      "Ġperceive": 5515,
      "Ġadventurer": 5516,
      "Ġbarracks": 5517,
      "plicity": 5518,
      "Ġexercise": 5519,
      "Ġessent": 5520,
      "ĠPrussian": 5521,
      "Ġinevitable": 5522,
      "Ġmethod": 5523,
      "Ġcultiv": 5524,
      "Ġsuspicion": 5525,
      "ĠBuddh": 5526,
      "CH": 5527,
      "Can": 5528,
      "LD": 5529,
      "May": 5530,
      "course": 5531,
      "faced": 5532,
      "hind": 5533,
      "iven": 5534,
      "nat": 5535,
      "oard": 5536,
      "oons": 5537,
      "rue": 5538,
      "vity": 5539,
      "Ã©": 5540,
      "Ġice": 5541,
      "Ġtick": 5542,
      "hered": 5543,
      "Ġwoe": 5544,
      "Ġowe": 5545,
      "reth": 5546,
      "ourage": 5547,
      "Ġbas": 5548,
      "ators": 5549,
      "Ġfires": 5550,
      "Ġcord": 5551,
      "aned": 5552,
      "Ġpounds": 5553,
      "asant": 5554,
      "ĠIN": 5555,
      "Ġnaked": 5556,
      "icip": 5557,
      "verse": 5558,
      "ĠTw": 5559,
      "Ġash": 5560,
      "Ġrev": 5561,
      "alib": 5562,
      "Ġrare": 5563,
      "Ġrang": 5564,
      "ama": 5565,
      "amond": 5566,
      "Ġfrank": 5567,
      "Ġseize": 5568,
      "Ġsaf": 5569,
      "ros": 5570,
      "ĠMore": 5571,
      "ĠMary": 5572,
      "ĠMaster": 5573,
      "think": 5574,
      "ĠSer": 5575,
      "ĠSund": 5576,
      "ĠSouth": 5577,
      "Ġbutt": 5578,
      "Ġwhoever": 5579,
      "Ġvic": 5580,
      "Ġvent": 5581,
      "Ġnovel": 5582,
      "Ġuniform": 5583,
      "olate": 5584,
      "umer": 5585,
      "igg": 5586,
      "istic": 5587,
      "venue": 5588,
      "Ġjung": 5589,
      "Ġjoke": 5590,
      "Ġyours": 5591,
      "ĠKulu": 5592,
      "Ġtruly": 5593,
      "ĠDr": 5594,
      "Ġbliss": 5595,
      "abled": 5596,
      "assidy": 5597,
      "Ġprey": 5598,
      "Ġremains": 5599,
      "Ġcrou": 5600,
      "Ġhole": 5601,
      "Ġindiff": 5602,
      "Ġretreat": 5603,
      "Ġrecom": 5604,
      "Ġattitude": 5605,
      "ĠAlas": 5606,
      "ension": 5607,
      "ernal": 5608,
      "erers": 5609,
      "Ġintimate": 5610,
      "Ġfathers": 5611,
      "ĠState": 5612,
      "Ġgreet": 5613,
      "Ġrelief": 5614,
      "Ġrefuse": 5615,
      "Ġ19": 5616,
      "Ġincred": 5617,
      "Ġdetect": 5618,
      "Ġhundreds": 5619,
      "liament": 5620,
      "Ġuseful": 5621,
      "Ġfools": 5622,
      "Ġillusion": 5623,
      "Ġcondes": 5624,
      "Ġforgive": 5625,
      "Ġmilitary": 5626,
      "Ġvex": 5627,
      "Ġquarters": 5628,
      "Ġmovements": 5629,
      "Ġrequire": 5630,
      "ĠSimla": 5631,
      "Ġfortun": 5632,
      "Ġshoes": 5633,
      "Ġmedic": 5634,
      "Ġequally": 5635,
      "Ġimagination": 5636,
      "Ġuncertain": 5637,
      "Ġprevious": 5638,
      "Ġconceal": 5639,
      "Ġanticip": 5640,
      "Ġlucky": 5641,
      "Ġdifficulties": 5642,
      "Ġcourtes": 5643,
      "Ġkilling": 5644,
      "Ġcounsel": 5645,
      "Ġslightest": 5646,
      "Ġavoid": 5647,
      "Ġargument": 5648,
      "Ġeagerly": 5649,
      "Ġinnocent": 5650,
      "Ġhesit": 5651,
      "Ġestablished": 5652,
      "Ġautumn": 5653,
      "Ġjumped": 5654,
      "Ġconsequence": 5655,
      "Ġsacrifice": 5656,
      "Ġantique": 5657,
      "Ġpaused": 5658,
      "Ġpuzz": 5659,
      "Ġsubtle": 5660,
      "Ġelephant": 5661,
      "Ġundoubted": 5662,
      "alibari": 5663,
      "Ġjungle": 5664,
      "AP": 5665,
      "Gatsby": 5666,
      "LY": 5667,
      "Mah": 5668,
      "VI": 5669,
      "bag": 5670,
      "bility": 5671,
      "can": 5672,
      "cont": 5673,
      "gs": 5674,
      "kin": 5675,
      "nes": 5676,
      "pir": 5677,
      "rous": 5678,
      "said": 5679,
      "ta": 5680,
      "uated": 5681,
      "your": 5682,
      "Ġ,": 5683,
      "Ġ[": 5684,
      "Ġz": 5685,
      "Ġtin": 5686,
      "Ġtail": 5687,
      "headed": 5688,
      "Ġbuck": 5689,
      "Ġfant": 5690,
      "Ġcell": 5691,
      "Ġdumb": 5692,
      "Ġpool": 5693,
      "asing": 5694,
      "Ġnin": 5695,
      "Ġassem": 5696,
      "urance": 5697,
      "Ġrais": 5698,
      "acle": 5699,
      "amity": 5700,
      "ambers": 5701,
      "ĠBalibari": 5702,
      "Ġseated": 5703,
      "Ġkid": 5704,
      "ulate": 5705,
      "usive": 5706,
      "Ġnoont": 5707,
      "Ġchain": 5708,
      "Ġchos": 5709,
      "unning": 5710,
      "Ġouter": 5711,
      "Ġunus": 5712,
      "emember": 5713,
      "Ġwhence": 5714,
      "ĠKam": 5715,
      "Ġaristo": 5716,
      "ĠEttie": 5717,
      "Ġtroops": 5718,
      "Ġcanst": 5719,
      "ĠItalian": 5720,
      "Ġknoweth": 5721,
      "Ġclo": 5722,
      "Ġcloth": 5723,
      "Ġens": 5724,
      "Ġdislike": 5725,
      "Ġroared": 5726,
      "Ġgrou": 5727,
      "Ġperish": 5728,
      "Ġperplex": 5729,
      "Ġfling": 5730,
      "ĠThrough": 5731,
      "ĠYOU": 5732,
      "Ġcoin": 5733,
      "Ġparties": 5734,
      "Ġslid": 5735,
      "Ġbreaking": 5736,
      "gging": 5737,
      "Ġfriendly": 5738,
      "pected": 5739,
      "Ġwrought": 5740,
      "Ġretire": 5741,
      "ization": 5742,
      "Ġboat": 5743,
      "anks": 5744,
      "ĠAlso": 5745,
      "Ġcheap": 5746,
      "Ġdeposition": 5747,
      "Ġcouch": 5748,
      "Ġadventures": 5749,
      "Ġdeliver": 5750,
      "Ġawakened": 5751,
      "Ġsurv": 5752,
      "Ġsurpass": 5753,
      "Ġgiant": 5754,
      "Ġforehead": 5755,
      "Ġinterf": 5756,
      "Ġrelation": 5757,
      "Ġsubs": 5758,
      "Ġreference": 5759,
      "mend": 5760,
      "Ġpolite": 5761,
      "eyond": 5762,
      "Ġhopeless": 5763,
      "Ġopposition": 5764,
      "Ġsleeping": 5765,
      "Ġroads": 5766,
      "Ġvirtuous": 5767,
      "Ġpatron": 5768,
      "Ġsumm": 5769,
      "Ġadmiration": 5770,
      "Ġsounds": 5771,
      "Ġangrily": 5772,
      "Ġcorre": 5773,
      "ification": 5774,
      "ĠIsland": 5775,
      "Ġsecrets": 5776,
      "atively": 5777,
      "world": 5778,
      "cientious": 5779,
      "Ġcharms": 5780,
      "Ġmurderer": 5781,
      "ĠAbraham": 5782,
      "ĠAmerica": 5783,
      "Ġdirectly": 5784,
      "Ġinnocence": 5785,
      "Ġdistrict": 5786,
      "Ġdiamond": 5787,
      "Ġcomrade": 5788,
      "Ġgifts": 5789,
      "Ġrecollect": 5790,
      "Ġrisk": 5791,
      "Ġrecruit": 5792,
      "Ġsubstance": 5793,
      "Ġgovernor": 5794,
      "Ġamusement": 5795,
      "Ġbodies": 5796,
      "Ġstallion": 5797,
      "Ġintelligence": 5798,
      "Ġdaguerreotyp": 5799,
      "Ġgradually": 5800,
      "Ġterritory": 5801,
      "Ġaristocr": 5802,
      "AS": 5803,
      "Just": 5804,
      "UST": 5805,
      "VE": 5806,
      "aed": 5807,
      "bro": 5808,
      "down": 5809,
      "fess": 5810,
      "fty": 5811,
      "ox": 5812,
      "put": 5813,
      "pers": 5814,
      "pire": 5815,
      "sight": 5816,
      "tte": 5817,
      "ulet": 5818,
      "war": 5819,
      "Ã¡": 5820,
      "Ġ:": 5821,
      "into": 5822,
      "Ġsons": 5823,
      "Ġsighed": 5824,
      "Ġoh": 5825,
      "Ġbicycle": 5826,
      "Ġfix": 5827,
      "Ġcup": 5828,
      "Ġofthe": 5829,
      "Ġdared": 5830,
      "Ġduck": 5831,
      "Ġdanced": 5832,
      "anz": 5833,
      "Ġheed": 5834,
      "Ġhell": 5835,
      "Ġnation": 5836,
      "omen": 5837,
      "Ġbeer": 5838,
      "Ġhalt": 5839,
      "Ġgam": 5840,
      "Ġgoose": 5841,
      "lease": 5842,
      "Ġrattle": 5843,
      "aching": 5844,
      "illing": 5845,
      "illery": 5846,
      "ĠBally": 5847,
      "ĠBuch": 5848,
      "ĠBirlstone": 5849,
      "Ġshows": 5850,
      "ĠMost": 5851,
      "Ġmanage": 5852,
      "ribly": 5853,
      "rah": 5854,
      "quest": 5855,
      "ĠCH": 5856,
      "ĠComp": 5857,
      "ĠCassidy": 5858,
      "asting": 5859,
      "Ġorn": 5860,
      "Ġliqu": 5861,
      "Ġlieth": 5862,
      "ĠPol": 5863,
      "Ġunex": 5864,
      "Ġexhaust": 5865,
      "ĠLo": 5866,
      "ĠGal": 5867,
      "oster": 5868,
      "ager": 5869,
      "Ġamount": 5870,
      "ĠNick": 5871,
      "ĠOl": 5872,
      "Ġarched": 5873,
      "ĠEtern": 5874,
      "Ġplate": 5875,
      "Ġplung": 5876,
      "Ġbrute": 5877,
      "eless": 5878,
      "Ġovert": 5879,
      "Ġanywhere": 5880,
      "inkled": 5881,
      "Ġours": 5882,
      "order": 5883,
      "Ġclut": 5884,
      "ptuous": 5885,
      "ibet": 5886,
      "Ġroar": 5887,
      "Ġrolling": 5888,
      "Ġimpl": 5889,
      "Ġflood": 5890,
      "Ġflies": 5891,
      "Ġscience": 5892,
      "bler": 5893,
      "Ġspell": 5894,
      "Ġmaybe": 5895,
      "Ġswell": 5896,
      "renches": 5897,
      "Ġcris": 5898,
      "Ġcalleth": 5899,
      "Ġslipp": 5900,
      "Ġslumber": 5901,
      "Ġcontrol": 5902,
      "Ġtear": 5903,
      "Ġearlier": 5904,
      "Ġcompass": 5905,
      "Ġimpress": 5906,
      "Ġlocked": 5907,
      "were": 5908,
      "shop": 5909,
      "Ġdrunken": 5910,
      "Ġsilk": 5911,
      "Ġcurator": 5912,
      "yrtle": 5913,
      "ceptible": 5914,
      "Ġactual": 5915,
      "Ġdragged": 5916,
      "Ġawaken": 5917,
      "ĠEnglishmen": 5918,
      "Ġinterior": 5919,
      "Ġtreasure": 5920,
      "Ġinvent": 5921,
      "Ġorderly": 5922,
      "Ġexped": 5923,
      "Ġhumanity": 5924,
      "ĠHowever": 5925,
      "Ġelsewhere": 5926,
      "Ġstrangely": 5927,
      "Ġstronger": 5928,
      "Ġfury": 5929,
      "Ġproposed": 5930,
      "Ġeasier": 5931,
      "Ġstartled": 5932,
      "Ġabsor": 5933,
      "Ġdriving": 5934,
      "Ġsorts": 5935,
      "Ġpainted": 5936,
      "Ġexception": 5937,
      "white": 5938,
      "ĠNothing": 5939,
      "Ġcaste": 5940,
      "Ġrequest": 5941,
      "Ġmistaken": 5942,
      "Ġtorture": 5943,
      "Ġregiments": 5944,
      "Ġcease": 5945,
      "arrass": 5946,
      "Ġsuccessful": 5947,
      "Ġprayers": 5948,
      "Ġdispute": 5949,
      "Ġeternally": 5950,
      "Ġglasses": 5951,
      "Ġbitterly": 5952,
      "Ġscreamed": 5953,
      "Ġapartment": 5954,
      "Ġvanity": 5955,
      "Ġsailor": 5956,
      "Ġdenied": 5957,
      "Ġearnestly": 5958,
      "Ġmortal": 5959,
      "Ġastonished": 5960,
      "Ġsongs": 5961,
      "Ġdistrust": 5962,
      "Ġendeavour": 5963,
      "Ġcases": 5964,
      "Ġincreased": 5965,
      "Ġmagician": 5966,
      "Ġdeserted": 5967,
      "Ġgrip": 5968,
      "Ġgesture": 5969,
      "ĠNOT": 5970,
      "Ġlocal": 5971,
      "Ġromantic": 5972,
      "Ġappreci": 5973,
      "Ġprodig": 5974,
      "Ġbranches": 5975,
      "Ġbaza": 5976,
      "Ġprophecy": 5977,
      "Ġthoroughly": 5978,
      "Ġinhabitants": 5979,
      "Ġimpulse": 5980,
      "Ġdisagreeable": 5981,
      "Holmes": 5982,
      "Ġcuriosity": 5983,
      "Ġinvisible": 5984,
      "Ġsafety": 5985,
      "Ġnoontide": 5986,
      "Ġchosen": 5987,
      "ĠBuchan": 5988,
      "\":": 5989,
      "23": 5990,
      "ETH": 5991,
      "His": 5992,
      "RA": 5993,
      "Sir": 5994,
      "Tom": 5995,
      "Take": 5996,
      "Was": 5997,
      "bu": 5998,
      "dr": 5999,
      "gage": 6000,
      "iress": 6001,
      "nant": 6002,
      "pher": 6003,
      "piece": 6004,
      "vas": 6005,
      "Ġtent": 6006,
      "Ġtal": 6007,
      "Ġast": 6008,
      "inity": 6009,
      "Ġsed": 6010,
      "Ġsore": 6011,
      "Ġhyp": 6012,
      "erves": 6013,
      "Ġmixed": 6014,
      "oust": 6015,
      "Ġbul": 6016,
      "Ġbrig": 6017,
      "itch": 6018,
      "iture": 6019,
      "Ġcattle": 6020,
      "oning": 6021,
      "Ġdaring": 6022,
      "orse": 6023,
      "Ġpi": 6024,
      "Ġpages": 6025,
      "Ġpush": 6026,
      "Ġlur": 6027,
      "asy": 6028,
      "Ġheiress": 6029,
      "Ġgn": 6030,
      "Ġgasp": 6031,
      "owder": 6032,
      "otions": 6033,
      "hern": 6034,
      "iller": 6035,
      "cho": 6036,
      "ĠAre": 6037,
      "ĠAny": 6038,
      "ighty": 6039,
      "ĠMo": 6040,
      "ĠMAN": 6041,
      "thought": 6042,
      "thony": 6043,
      "gend": 6044,
      "ribe": 6045,
      "ĠWolf": 6046,
      "cture": 6047,
      "quis": 6048,
      "Ġnobility": 6049,
      "Ġchicken": 6050,
      "unee": 6051,
      "Ġshepher": 6052,
      "Ġunse": 6053,
      "Ġworship": 6054,
      "ĠLong": 6055,
      "Ġleis": 6056,
      "Ġlegend": 6057,
      "Ġspark": 6058,
      "ĠFirst": 6059,
      "ĠON": 6060,
      "Ġarch": 6061,
      "ĠEn": 6062,
      "ĠEar": 6063,
      "ĠEgg": 6064,
      "ĠDet": 6065,
      "Ġbloss": 6066,
      "Ġclam": 6067,
      "Ġclums": 6068,
      "uding": 6069,
      "Ġgreatness": 6070,
      "Ġbackward": 6071,
      "Ġevenings": 6072,
      "Ġcock": 6073,
      "avi": 6074,
      "igned": 6075,
      "Ġcomposed": 6076,
      "Ġconscientious": 6077,
      "Ġgently": 6078,
      "Ġwaters": 6079,
      "izing": 6080,
      "Ġlightly": 6081,
      "Ġobtain": 6082,
      "ĠUnder": 6083,
      "Ġhumour": 6084,
      "ensive": 6085,
      "ogue": 6086,
      "Ġminds": 6087,
      "Ġacted": 6088,
      "Ġinsol": 6089,
      "Ġaffect": 6090,
      "Ġconfused": 6091,
      "Ġconfusion": 6092,
      "Ġfollows": 6093,
      "atta": 6094,
      "Ġmonster": 6095,
      "Ġsunny": 6096,
      "Ġreading": 6097,
      "Ġverses": 6098,
      "Ġskill": 6099,
      "Ġearthly": 6100,
      "Ġexpense": 6101,
      "phone": 6102,
      "Ġmiser": 6103,
      "Ġ15": 6104,
      "Ġsnuff": 6105,
      "Ġparag": 6106,
      "Ġjoined": 6107,
      "Ġbrothers": 6108,
      "Ġproperly": 6109,
      "Ġcollect": 6110,
      "Ġdreamed": 6111,
      "Ġdecided": 6112,
      "Ġwilder": 6113,
      "Ġpaying": 6114,
      "enger": 6115,
      "Ġirre": 6116,
      "ĠNote": 6117,
      "ĠQue": 6118,
      "ĠAnthony": 6119,
      "Ġprepar": 6120,
      "board": 6121,
      "Ġgrandson": 6122,
      "Ġoccasionally": 6123,
      "Ġcelebr": 6124,
      "Ġapproached": 6125,
      "Ġhunger": 6126,
      "Ġpractice": 6127,
      "Ġpractical": 6128,
      "Ġstole": 6129,
      "Ġconvinced": 6130,
      "Ġsatisfied": 6131,
      "Ġsailors": 6132,
      "Ġrocks": 6133,
      "Ġerror": 6134,
      "Ġrosy": 6135,
      "Ġrejoiced": 6136,
      "ĠNeither": 6137,
      "Ġhesitated": 6138,
      "Ġkissed": 6139,
      "Ġdismal": 6140,
      "Ġbirds": 6141,
      "Ġbefall": 6142,
      "Ġdiscipl": 6143,
      "âĢ¦.": 6144,
      "Ġpotat": 6145,
      "Ġcompliments": 6146,
      "ĠManor": 6147,
      "coloured": 6148,
      "Ġjewels": 6149,
      "Ġignorant": 6150,
      "Ġspecies": 6151,
      "Ġintroduced": 6152,
      "Ġborne": 6153,
      "Ġassistance": 6154,
      "Ġnarrative": 6155,
      "Ġmachine": 6156,
      "ĠBerlin": 6157,
      "Ġfeeble": 6158,
      "Ġscoundrel": 6159,
      "Ġinstrument": 6160,
      "Ġhaughty": 6161,
      "Ġextraordinary": 6162,
      "dealer": 6163,
      "ĠSikh": 6164,
      "ĠRajah": 6165,
      "Ġkinsman": 6166,
      "Ġcourtesy": 6167,
      "Ġdaguerreotypist": 6168,
      "uneefa": 6169,
      "Cl": 6170,
      "Every": 6171,
      "True": 6172,
      "aly": 6173,
      "aith": 6174,
      "cing": 6175,
      "dog": 6176,
      "gent": 6177,
      "gone": 6178,
      "hour": 6179,
      "ien": 6180,
      "jab": 6181,
      "nings": 6182,
      "ped": 6183,
      "pri": 6184,
      "ts": 6185,
      "when": 6186,
      "yard": 6187,
      "Ġvel": 6188,
      "Ġtiny": 6189,
      "Ġtrenches": 6190,
      "Ġapt": 6191,
      "Ġaught": 6192,
      "inting": 6193,
      "Ġwing": 6194,
      "Ġwake": 6195,
      "Ġsize": 6196,
      "rem": 6197,
      "Ġhy": 6198,
      "Ġhind": 6199,
      "Ġmater": 6200,
      "Ġbatt": 6201,
      "Ġbunch": 6202,
      "Ġfum": 6203,
      "Ġcakes": 6204,
      "onstr": 6205,
      "Ġthief": 6206,
      "Ġdice": 6207,
      "Ġdamp": 6208,
      "Ġpos": 6209,
      "Ġpark": 6210,
      "Ġpara": 6211,
      "Ġlap": 6212,
      "Ġlift": 6213,
      "Ġinher": 6214,
      "Ġinward": 6215,
      "ĠIda": 6216,
      "Ġnur": 6217,
      "Ġhab": 6218,
      "Ġgain": 6219,
      "icted": 6220,
      "ste": 6221,
      "stead": 6222,
      "strees": 6223,
      "ids": 6224,
      "etime": 6225,
      "Ġwast": 6226,
      "ĠTibet": 6227,
      "Ġashes": 6228,
      "Ġascend": 6229,
      "adays": 6230,
      "Ġstout": 6231,
      "Ġstalk": 6232,
      "Ġrout": 6233,
      "Ġrab": 6234,
      "Ġrhy": 6235,
      "Ġmemb": 6236,
      "acher": 6237,
      "Ġnoted": 6238,
      "Ġnoticed": 6239,
      "Ġattained": 6240,
      "ifying": 6241,
      "ĠBel": 6242,
      "ĠBeng": 6243,
      "Ġshade": 6244,
      "Ġsex": 6245,
      "Ġsecl": 6246,
      "ĠMeanwhile": 6247,
      "Ġsoot": 6248,
      "thou": 6249,
      "Ġdearest": 6250,
      "Ġkilt": 6251,
      "rier": 6252,
      "ulation": 6253,
      "ĠCar": 6254,
      "ĠCounc": 6255,
      "iem": 6256,
      "ĠPower": 6257,
      "Ġuncom": 6258,
      "Ġuneas": 6259,
      "ĠLXX": 6260,
      "Ġaboard": 6261,
      "Ġages": 6262,
      "ĠFaken": 6263,
      "ĠFOR": 6264,
      "idel": 6265,
      "ĠEast": 6266,
      "ĠEach": 6267,
      "Ġplat": 6268,
      "ĠDev": 6269,
      "Ġoverfl": 6270,
      "Ġblock": 6271,
      "Ġclerk": 6272,
      "These": 6273,
      "ffic": 6274,
      "Ġpoets": 6275,
      "angle": 6276,
      "bec": 6277,
      "Ġpeop": 6278,
      "Ġpretended": 6279,
      "Ġspear": 6280,
      "ĠRoyal": 6281,
      "Ġwhereas": 6282,
      "Ġwherever": 6283,
      "Ġglo": 6284,
      "Ġparted": 6285,
      "Ġpasses": 6286,
      "Ġreserve": 6287,
      "Ġaccur": 6288,
      "Ġaccustomed": 6289,
      "hens": 6290,
      "Ġguide": 6291,
      "Ġcommission": 6292,
      "shiem": 6293,
      "izz": 6294,
      "tens": 6295,
      "Ġattached": 6296,
      "ĠValley": 6297,
      "Ġgentlewoman": 6298,
      "Ġcursed": 6299,
      "Ġartillery": 6300,
      "Ġsupply": 6301,
      "Ġworking": 6302,
      "Ġnamely": 6303,
      "Ġelbow": 6304,
      "Ġsweat": 6305,
      "Ġfacts": 6306,
      "Ġbloody": 6307,
      "Ġuseless": 6308,
      "Ġlands": 6309,
      "Ġcrept": 6310,
      "Ġfourth": 6311,
      "untary": 6312,
      "Ġtries": 6313,
      "Ġaccounts": 6314,
      "Ġdecay": 6315,
      "grim": 6316,
      "Ġgrowled": 6317,
      "Ġveget": 6318,
      "Ġtransl": 6319,
      "ĠDoctor": 6320,
      "Ġcrying": 6321,
      "Ġridic": 6322,
      "Ġswords": 6323,
      "boh": 6324,
      "Ġeaten": 6325,
      "Ġprivile": 6326,
      "Ġdestiny": 6327,
      "Ġimagined": 6328,
      "Ġduties": 6329,
      "Ġdescribe": 6330,
      "Ġdefinite": 6331,
      "Ġenjoyment": 6332,
      "Ġsuggestion": 6333,
      "Ġcustoms": 6334,
      "Ġconstit": 6335,
      "ĠEuropean": 6336,
      "Ġviolently": 6337,
      "Ġvictory": 6338,
      "Ġcrossed": 6339,
      "Ġformerly": 6340,
      "Ġshouting": 6341,
      "Ġembarrass": 6342,
      "Ġhealthy": 6343,
      "Ġindividuals": 6344,
      "Ġhostile": 6345,
      "Ġrepresented": 6346,
      "ttes": 6347,
      "Ġcriminal": 6348,
      "Ġcrimson": 6349,
      "ĠAmong": 6350,
      "Ġaccepted": 6351,
      "Ġchapter": 6352,
      "Ġdisturb": 6353,
      "Ġenvy": 6354,
      "Ġholid": 6355,
      "Ġagreeable": 6356,
      "Ġsacrific": 6357,
      "Ġrecruits": 6358,
      "Ġmagnific": 6359,
      "Ġelderly": 6360,
      "Ġattracted": 6361,
      "ĠSometimes": 6362,
      "Ġglimpse": 6363,
      "Ġtelephone": 6364,
      "Ġintentions": 6365,
      "country": 6366,
      "Ġvaluable": 6367,
      "Ġwedding": 6368,
      "Ġmajor": 6369,
      "lowly": 6370,
      "Ġcontempl": 6371,
      "Ġcorrespondence": 6372,
      "ĠPunjab": 6373,
      "Ġpilgrim": 6374,
      "Ġparagraph": 6375,
      "Ġmembers": 6376,
      "ĠFakenham": 6377,
      "Ab": 6378,
      "ault": 6379,
      "burg": 6380,
      "dy": 6381,
      "elf": 6382,
      "fashion": 6383,
      "gest": 6384,
      "ials": 6385,
      "lor": 6386,
      "mount": 6387,
      "neth": 6388,
      "riss": 6389,
      "rase": 6390,
      "too": 6391,
      "ule": 6392,
      "uously": 6393,
      "vial": 6394,
      "walk": 6395,
      "Ġ6": 6396,
      "Ġ9": 6397,
      "Ġtax": 6398,
      "inisc": 6399,
      "Ġwest": 6400,
      "Ġhom": 6401,
      "Ġmum": 6402,
      "Ġmix": 6403,
      "Ġmoust": 6404,
      "Ġbask": 6405,
      "Ġbrand": 6406,
      "ishes": 6407,
      "Ġfed": 6408,
      "Ġthread": 6409,
      "Ġduel": 6410,
      "orous": 6411,
      "anes": 6412,
      "Ġpink": 6413,
      "asions": 6414,
      "Ġnest": 6415,
      "Ġnumb": 6416,
      "omed": 6417,
      "Ġbeck": 6418,
      "learn": 6419,
      "imony": 6420,
      "Ġease": 6421,
      "ĠTim": 6422,
      "Ġforms": 6423,
      "Ġwelf": 6424,
      "illor": 6425,
      "Ġsending": 6426,
      "rob": 6427,
      "Ġsuck": 6428,
      "ĠMiller": 6429,
      "iless": 6430,
      "ilies": 6431,
      "ĠSand": 6432,
      "ardment": 6433,
      "geance": 6434,
      "ĠWonder": 6435,
      "ulted": 6436,
      "quer": 6437,
      "quet": 6438,
      "quir": 6439,
      "ĠCros": 6440,
      "asts": 6441,
      "Ġconve": 6442,
      "Ġconstr": 6443,
      "Ġchill": 6444,
      "Ġchast": 6445,
      "ĠPe": 6446,
      "Ġoutward": 6447,
      "ooked": 6448,
      "ĠGree": 6449,
      "Ġjar": 6450,
      "ĠKings": 6451,
      "Ġcane": 6452,
      "Ġcanvas": 6453,
      "Ġquiver": 6454,
      "Ġbrood": 6455,
      "Ġbrings": 6456,
      "Ġprospect": 6457,
      "Ġanybody": 6458,
      "Ġblaz": 6459,
      "abor": 6460,
      "Ġhandful": 6461,
      "Ġprudence": 6462,
      "play": 6463,
      "never": 6464,
      "Ġgrows": 6465,
      "Ġflag": 6466,
      "before": 6467,
      "ĠThings": 6468,
      "Ġscow": 6469,
      "iped": 6470,
      "teous": 6471,
      "Ġreminisc": 6472,
      "Ġcrum": 6473,
      "Ġthoughtfully": 6474,
      "sooth": 6475,
      "Ġresist": 6476,
      "Ġresidence": 6477,
      "onsense": 6478,
      "Ġconsent": 6479,
      "Ġloathing": 6480,
      "Ġgentry": 6481,
      "Ġapolog": 6482,
      "Ġobtained": 6483,
      "ograph": 6484,
      "Ġsetting": 6485,
      "Ġdoubted": 6486,
      "Ġhoriz": 6487,
      "ĠStates": 6488,
      "rup": 6489,
      "Ġdeadly": 6490,
      "Ġslender": 6491,
      "Ġforec": 6492,
      "Ġforever": 6493,
      "Ġrelatives": 6494,
      "Ġrefuge": 6495,
      "Ġsteep": 6496,
      "Ġ12": 6497,
      "Ġhastened": 6498,
      "Ġincome": 6499,
      "Ġprompt": 6500,
      "Ġsweep": 6501,
      "gedy": 6502,
      "Ġlandl": 6503,
      "Ġlanding": 6504,
      "Ġwisest": 6505,
      "ĠBritain": 6506,
      "Ġcreep": 6507,
      "Ġelect": 6508,
      "untarily": 6509,
      "Ġcharacters": 6510,
      "Ġmadriss": 6511,
      "Ġshowing": 6512,
      "Ġpropose": 6513,
      "Ġcollap": 6514,
      "ugust": 6515,
      "Ġmounted": 6516,
      "Ġrealize": 6517,
      "Ġrespects": 6518,
      "stricken": 6519,
      "Ġgrowth": 6520,
      "Ġveil": 6521,
      "Ġdrinking": 6522,
      "Ġphant": 6523,
      "Ġsuccumb": 6524,
      "ĠIndian": 6525,
      "ounce": 6526,
      "Ġsolid": 6527,
      "Ġsolitary": 6528,
      "Ġrecognised": 6529,
      "III": 6530,
      "Ġattempted": 6531,
      "Ġgladly": 6532,
      "Ġcalamity": 6533,
      "Ġconstant": 6534,
      "Ġdusty": 6535,
      "Ġprotection": 6536,
      "THE": 6537,
      "Ġbullet": 6538,
      "ĠParliament": 6539,
      "Ġcraft": 6540,
      "Ġneighbours": 6541,
      "Ġtreatment": 6542,
      "Ġcooked": 6543,
      "Ġgarage": 6544,
      "Ġpressing": 6545,
      "Ġbuilding": 6546,
      "Ġencoun": 6547,
      "Ġancestor": 6548,
      "Ġbaggage": 6549,
      "ĠDeath": 6550,
      "Ġchoice": 6551,
      "Ġdepths": 6552,
      "Ġinclined": 6553,
      "Ġhalted": 6554,
      "Ġrecollection": 6555,
      "Ġjewel": 6556,
      "Ġamazement": 6557,
      "Ġpurchase": 6558,
      "Ġignorance": 6559,
      "Ġspeedily": 6560,
      "ointment": 6561,
      "Ġcliffs": 6562,
      "Ġcigarette": 6563,
      "Ġcigarettes": 6564,
      "Ġproduced": 6565,
      "Ġunluck": 6566,
      "Ġsupplied": 6567,
      "ĠFranz": 6568,
      "Ġabandoned": 6569,
      "Ġbreathe": 6570,
      "Ġdollars": 6571,
      "Ġparents": 6572,
      "Ġfarewell": 6573,
      "Ġobedience": 6574,
      "Ġmanifest": 6575,
      "ĠFinally": 6576,
      "Ġcripp": 6577,
      "Ġexplanation": 6578,
      "Ġindepend": 6579,
      "Ġacknowledged": 6580,
      "ĠKamboh": 6581,
      "ĠBuchanan": 6582,
      "ĠWolfshiem": 6583,
      "Ġwelfare": 6584,
      "ĠCrosstrees": 6585,
      "Ġmadrissah": 6586,
      ".âĢľ": 6587,
      "DE": 6588,
      "Daisy": 6589,
      "From": 6590,
      "Ne": 6591,
      "Or": 6592,
      "SEL": 6593,
      "TU": 6594,
      "away": 6595,
      "bur": 6596,
      "cz": 6597,
      "equ": 6598,
      "gment": 6599,
      "iated": 6600,
      "ihil": 6601,
      "know": 6602,
      "mod": 6603,
      "nac": 6604,
      "ole": 6605,
      "ratta": 6606,
      "zes": 6607,
      "Ġ7": 6608,
      "Ġah": 6609,
      "inable": 6610,
      "Ġward": 6611,
      "Ġwra": 6612,
      "Ġwings": 6613,
      "Ġsour": 6614,
      "Ġsang": 6615,
      "rell": 6616,
      "Ġmental": 6617,
      "Ġbase": 6618,
      "Ġbundle": 6619,
      "ateth": 6620,
      "atory": 6621,
      "Ġfist": 6622,
      "Ġfired": 6623,
      "Ġtot": 6624,
      "Ġder": 6625,
      "llen": 6626,
      "anlan": 6627,
      "Ġpowers": 6628,
      "Ġlat": 6629,
      "Ġink": 6630,
      "ĠII": 6631,
      "Ġbeach": 6632,
      "Ġbeef": 6633,
      "Ġgross": 6634,
      "Ġgurg": 6635,
      "lection": 6636,
      "Ġwhip": 6637,
      "idering": 6638,
      "ĠTown": 6639,
      "Ġforsooth": 6640,
      "Ġstable": 6641,
      "Ġmeat": 6642,
      "Ġmead": 6643,
      "acc": 6644,
      "ĠHuneefa": 6645,
      "Ġattain": 6646,
      "Ġattended": 6647,
      "ĠBun": 6648,
      "Ġshru": 6649,
      "chan": 6650,
      "ĠAvenue": 6651,
      "Ġsus": 6652,
      "Ġsob": 6653,
      "Ġdew": 6654,
      "ĠSm": 6655,
      "ĠSur": 6656,
      "Ġkin": 6657,
      "rib": 6658,
      "raft": 6659,
      "ĠCr": 6660,
      "Ġaltered": 6661,
      "Ġalike": 6662,
      "Ġwholly": 6663,
      "Ġconven": 6664,
      "Ġnod": 6665,
      "Ġnois": 6666,
      "Ġlikes": 6667,
      "ĠPoor": 6668,
      "Ġunm": 6669,
      "ĠLX": 6670,
      "ounding": 6671,
      "umin": 6672,
      "Ġleather": 6673,
      "ĠGREAT": 6674,
      "Ġspl": 6675,
      "agon": 6676,
      "ĠKe": 6677,
      "Ġard": 6678,
      "Ġtrim": 6679,
      "orts": 6680,
      "Ġquit": 6681,
      "Ġpled": 6682,
      "Ġovercome": 6683,
      "inkle": 6684,
      "Ġyearn": 6685,
      "Ġblame": 6686,
      "Ġcloser": 6687,
      "Ġmuff": 6688,
      "Ġscattered": 6689,
      "Ġpretend": 6690,
      "Ġstring": 6691,
      "Ġswim": 6692,
      "Ġswall": 6693,
      "Ġsworn": 6694,
      "ivia": 6695,
      "Ġglowing": 6696,
      "Ġglorious": 6697,
      "Ġcarri": 6698,
      "Ġimpr": 6699,
      "Ġrecover": 6700,
      "Ġhappens": 6701,
      "ĠBrown": 6702,
      "Ġlights": 6703,
      "ertainly": 6704,
      "Ġmarched": 6705,
      "Ġfeels": 6706,
      "Ġfamilies": 6707,
      "Ġemotions": 6708,
      "ereth": 6709,
      "Ġelabor": 6710,
      "Ġinsult": 6711,
      "Ġoccasions": 6712,
      "Ġchariot": 6713,
      "Ġdelib": 6714,
      "Ġintercourse": 6715,
      "Ġresting": 6716,
      "Ġprize": 6717,
      "Ġhighly": 6718,
      "Ġrelations": 6719,
      "insky": 6720,
      "Ġsteady": 6721,
      "Ġdoubtless": 6722,
      "Ġliveth": 6723,
      "Ġcreator": 6724,
      "ĠEvil": 6725,
      "Ġcolor": 6726,
      "Ġcolour": 6727,
      "Ġpropri": 6728,
      "Ġsigned": 6729,
      "ipping": 6730,
      "Ġmerry": 6731,
      "Ġmercy": 6732,
      "Ġvillain": 6733,
      "Ġrespectable": 6734,
      "ecil": 6735,
      "ĠXXX": 6736,
      "Ġremarks": 6737,
      "spirit": 6738,
      "Ġphrase": 6739,
      "Ġcorners": 6740,
      "Ġconsideration": 6741,
      "Ġbreathing": 6742,
      "Ġlistening": 6743,
      "Ġfashionable": 6744,
      "Ġsaloon": 6745,
      "Ġobjects": 6746,
      "rooms": 6747,
      "ritz": 6748,
      "Ġstayed": 6749,
      "worthy": 6750,
      "Ġhotel": 6751,
      "Ġheavens": 6752,
      "Ġconceive": 6753,
      "Ġpenet": 6754,
      "Ġconvul": 6755,
      "Ġbanker": 6756,
      "ĠScow": 6757,
      "ĠScanlan": 6758,
      "Ġbitterness": 6759,
      "Ġpitch": 6760,
      "Ġidle": 6761,
      "Ġmissing": 6762,
      "Ġdisgu": 6763,
      "Ġleaning": 6764,
      "Ġsettle": 6765,
      "Ġpermit": 6766,
      "Ġsacred": 6767,
      "Ġdiscussed": 6768,
      "Ġgrasped": 6769,
      "Ġlabor": 6770,
      "Ġrapidly": 6771,
      "Ġrobbed": 6772,
      "Ġstirred": 6773,
      "dozen": 6774,
      "Ġcruelty": 6775,
      "Ġimpatiently": 6776,
      "Ġburning": 6777,
      "Ġliter": 6778,
      "Ġseparate": 6779,
      "Ġarrangements": 6780,
      "Ġrusty": 6781,
      "Ġknocked": 6782,
      "Ġemerald": 6783,
      "Ġaccompan": 6784,
      "ILL": 6785,
      "Ġfetch": 6786,
      "Ġbreeze": 6787,
      "Ġresolved": 6788,
      "Ġfountain": 6789,
      "Ġdusk": 6790,
      "Ġhelmet": 6791,
      "Ġprosperity": 6792,
      "Ġbetray": 6793,
      "Ġenthusiasm": 6794,
      "Ġvenerable": 6795,
      "Ġsteadily": 6796,
      "Ġfootsteps": 6797,
      "Ġunwilling": 6798,
      "Ġundoubtedly": 6799,
      "Ġunusual": 6800,
      "Ġgroup": 6801,
      "warf": 6802,
      "ĠOlivia": 6803,
      "Ġabsorbed": 6804,
      "Ġwilderness": 6805,
      "Ġdiscipline": 6806,
      "Ġvelve": 6807,
      "ĠCouncillor": 6808,
      "czinsky": 6809,
      "'\"": 6810,
      "Any": 6811,
      "Even": 6812,
      "Oah": 6813,
      "ORE": 6814,
      "aver": 6815,
      "bread": 6816,
      "could": 6817,
      "dor": 6818,
      "even": 6819,
      "gon": 6820,
      "hu": 6821,
      "maid": 6822,
      "och": 6823,
      "uity": 6824,
      "wr": 6825,
      "yers": 6826,
      "Ġtied": 6827,
      "Ġawe": 6828,
      "inished": 6829,
      "Ġwot": 6830,
      "Ġsan": 6831,
      "Ġsink": 6832,
      "Ġsank": 6833,
      "Ġow": 6834,
      "Ġhook": 6835,
      "Ġhint": 6836,
      "erver": 6837,
      "Ġmart": 6838,
      "Ġber": 6839,
      "Ġbon": 6840,
      "Ġbind": 6841,
      "Ġbark": 6842,
      "Ġbits": 6843,
      "isers": 6844,
      "isdom": 6845,
      "Ġfaced": 6846,
      "Ġcant": 6847,
      "Ġcure": 6848,
      "arched": 6849,
      "Ġpile": 6850,
      "Ġpenc": 6851,
      "Ġpaint": 6852,
      "Ġpaces": 6853,
      "Ġpardon": 6854,
      "Ġlin": 6855,
      "Ġlor": 6856,
      "Ġling": 6857,
      "Ġloo": 6858,
      "Ġlink": 6859,
      "Ġlung": 6860,
      "Ġlately": 6861,
      "ĠIS": 6862,
      "Ġheark": 6863,
      "Ġnon": 6864,
      "Ġgild": 6865,
      "lebone": 6866,
      "othes": 6867,
      "uting": 6868,
      "utive": 6869,
      "icing": 6870,
      "stit": 6871,
      "step": 6872,
      "Ġecho": 6873,
      "Ġwhim": 6874,
      "ette": 6875,
      "Ġwash": 6876,
      "Ġumb": 6877,
      "vert": 6878,
      "Ġrender": 6879,
      "urred": 6880,
      "Ġstage": 6881,
      "Ġrange": 6882,
      "Ġmechan": 6883,
      "Ġnotion": 6884,
      "amiliar": 6885,
      "ifting": 6886,
      "ĠBoss": 6887,
      "Ġshrew": 6888,
      "chair": 6889,
      "ĠAd": 6890,
      "Ġhers": 6891,
      "ĠMyrtle": 6892,
      "ĠSaw": 6893,
      "ĠSoul": 6894,
      "ĠSlowly": 6895,
      "Ġmanhood": 6896,
      "pended": 6897,
      "ĠWes": 6898,
      "ulent": 6899,
      "ander": 6900,
      "quar": 6901,
      "Ġvig": 6902,
      "antine": 6903,
      "Ġcontain": 6904,
      "Ġchanced": 6905,
      "Ġchambers": 6906,
      "ĠPot": 6907,
      "ĠPath": 6908,
      "arten": 6909,
      "olic": 6910,
      "ittelst": 6911,
      "Ġabuse": 6912,
      "Ġabrupt": 6913,
      "Ġagent": 6914,
      "ellow": 6915,
      "agner": 6916,
      "Ġamulet": 6917,
      "Ġarrow": 6918,
      "ortion": 6919,
      "opes": 6920,
      "Ġplans": 6921,
      "Ġbrid": 6922,
      "Ġbrass": 6923,
      "Ġnowhere": 6924,
      "Ġnowadays": 6925,
      "ĠDon": 6926,
      "ĠDay": 6927,
      "ĠDark": 6928,
      "Ġoverwhe": 6929,
      "Ġtimber": 6930,
      "abouts": 6931,
      "Ġacute": 6932,
      "Ġrope": 6933,
      "Ġroyal": 6934,
      "Ġoffe": 6935,
      "Ġgrateful": 6936,
      "Ġperformed": 6937,
      "Ġflour": 6938,
      "anges": 6939,
      "ĠJat": 6940,
      "ĠJove": 6941,
      "tending": 6942,
      "Ġstrain": 6943,
      "ĠRemember": 6944,
      "Ġdescended": 6945,
      "ĠZeal": 6946,
      "sole": 6947,
      "anco": 6948,
      "Ġseemeth": 6949,
      "Ġresent": 6950,
      "Ġresolute": 6951,
      "Ġsermon": 6952,
      "Ġrecall": 6953,
      "Ġguilt": 6954,
      "Ġdoorway": 6955,
      "Ġmarve": 6956,
      "Ġgravity": 6957,
      "Ġterm": 6958,
      "Ġactive": 6959,
      "Ġactivity": 6960,
      "Ġintently": 6961,
      "Ġadvise": 6962,
      "ĠSahiba": 6963,
      "Ġawoke": 6964,
      "Ġhonourable": 6965,
      "Ġassent": 6966,
      "Ġassume": 6967,
      "Ġsurgeon": 6968,
      "Ġgreed": 6969,
      "Ġsentence": 6970,
      "Ġmonkey": 6971,
      "Ġrested": 6972,
      "ĠMahratta": 6973,
      "Ġmeanwhile": 6974,
      "Ġsubsequ": 6975,
      "Ġskipper": 6976,
      "Ġinvite": 6977,
      "Ġinvented": 6978,
      "Ġreflected": 6979,
      "Ġsteel": 6980,
      "Ġlearning": 6981,
      "Ġdeepest": 6982,
      "Ġwarrant": 6983,
      "Ġ10": 6984,
      "Ġ13": 6985,
      "Ġdetails": 6986,
      "ĠLordship": 6987,
      "Ġlanded": 6988,
      "Ġunderstanding": 6989,
      "Ġfinish": 6990,
      "Ġjokes": 6991,
      "Ġfaquir": 6992,
      "Ġredeem": 6993,
      "Ġpatience": 6994,
      "ĠTHERE": 6995,
      "ĠSelf": 6996,
      "Ġtrip": 6997,
      "Ġestates": 6998,
      "Ġadmir": 6999,
      "ĠNorris": 7000,
      "hammed": 7001,
      "Ġlarger": 7002,
      "ĠXL": 7003,
      "Ġsadly": 7004,
      "Ġsaddle": 7005,
      "Ġstatement": 7006,
      "Ġescaped": 7007,
      "Ġannihil": 7008,
      "Ġguardian": 7009,
      "Ġwithered": 7010,
      "Ġprepare": 7011,
      "Ġschol": 7012,
      "Ġsalt": 7013,
      "Ġforgetting": 7014,
      "Ġstrive": 7015,
      "ĠGray": 7016,
      "Ġcustomer": 7017,
      "Ġcontract": 7018,
      "Ġanxiety": 7019,
      "Ġtremble": 7020,
      "haired": 7021,
      "Ġhangs": 7022,
      "ĠWhile": 7023,
      "Ġtraining": 7024,
      "Ġharbour": 7025,
      "Ġcircumstance": 7026,
      "Ġeighty": 7027,
      "Ġvolume": 7028,
      "Ġscream": 7029,
      "Ġscreaming": 7030,
      "Ġslightly": 7031,
      "Ġaccomplish": 7032,
      "Ġavail": 7033,
      "Ġarguments": 7034,
      "Ġfalsehood": 7035,
      "Ġwarned": 7036,
      "Ġthreatened": 7037,
      "Ġchiefly": 7038,
      "Ġwaved": 7039,
      "Ġgenius": 7040,
      "Ġancestors": 7041,
      "Ġancestral": 7042,
      "Ġseparated": 7043,
      "Ġtradition": 7044,
      "Ġfunny": 7045,
      "ESS": 7046,
      "ĠBlanco": 7047,
      "Ġsuspected": 7048,
      "boys": 7049,
      "Ġrascal": 7050,
      "window": 7051,
      "Ġdistinctly": 7052,
      "Ġcheeks": 7053,
      "allowax": 7054,
      "Ġfountains": 7055,
      "Ġangel": 7056,
      "Ġbenefit": 7057,
      "Ġinquiry": 7058,
      "Ġingen": 7059,
      "Ġpistol": 7060,
      "Ġprincip": 7061,
      "Ġprejudices": 7062,
      "ĠBetter": 7063,
      "Ġbrutal": 7064,
      "Ġrescue": 7065,
      "Ġvengeance": 7066,
      "ĠFrederick": 7067,
      "Exactly": 7068,
      "Ġbombardment": 7069,
      "uspicious": 7070,
      "Ġdomestic": 7071,
      "ĠMarylebone": 7072,
      "ĠSunday": 7073,
      "Ġmedicine": 7074,
      "aedt": 7075,
      "ĠMohammed": 7076,
      "ĠDetering": 7077,
      "ĠQueen": 7078,
      "Ġpeoples": 7079,
      "ĠSanders": 7080,
      "Ġvelvet": 7081,
      "ittelstaedt": 7082,
      "Ġoverwhel": 7083,
      "ĠZealand": 7084,
      "50": 7085,
      "AK": 7086,
      "AY": 7087,
      "Dear": 7088,
      "EE": 7089,
      "EAR": 7090,
      "Up": 7091,
      "].": 7092,
      "barry": 7093,
      "door": 7094,
      "four": 7095,
      "fig": 7096,
      "gin": 7097,
      "gic": 7098,
      "gro": 7099,
      "hot": 7100,
      "lings": 7101,
      "mir": 7102,
      "mighty": 7103,
      "overy": 7104,
      "pen": 7105,
      "piration": 7106,
      "rors": 7107,
      "sl": 7108,
      "uing": 7109,
      "uptuous": 7110,
      "vals": 7111,
      "water": 7112,
      "zdor": 7113,
      "Ġtig": 7114,
      "Ġtough": 7115,
      "hend": 7116,
      "Ġwoke": 7117,
      "Ġhunting": 7118,
      "Ġbat": 7119,
      "Ġbub": 7120,
      "iting": 7121,
      "isation": 7122,
      "Ġfitting": 7123,
      "Ġfasc": 7124,
      "Ġcunning": 7125,
      "Ġtomorrow": 7126,
      "Ġdil": 7127,
      "Ġdang": 7128,
      "orial": 7129,
      "anim": 7130,
      "anny": 7131,
      "Ġpred": 7132,
      "Ġpony": 7133,
      "Ġinthe": 7134,
      "Ġhereditary": 7135,
      "Ġnonsense": 7136,
      "omething": 7137,
      "Ġbend": 7138,
      "Ġgable": 7139,
      "Ġgoss": 7140,
      "otes": 7141,
      "ication": 7142,
      "stain": 7143,
      "stret": 7144,
      "Ġeaster": 7145,
      "ete": 7146,
      "Ġwasted": 7147,
      "verb": 7148,
      "ĠTallowax": 7149,
      "Ġren": 7150,
      "Ġrent": 7151,
      "Ġretain": 7152,
      "ural": 7153,
      "Ġweep": 7154,
      "Ġstol": 7155,
      "Ġrow": 7156,
      "Ġrings": 7157,
      "Ġrans": 7158,
      "ĠHill": 7159,
      "ĠHil": 7160,
      "amps": 7161,
      "char": 7162,
      "Ġsag": 7163,
      "ĠMother": 7164,
      "ĠMittelstaedt": 7165,
      "ĠSince": 7166,
      "Ġkine": 7167,
      "Ġupright": 7168,
      "ulously": 7169,
      "ĠCon": 7170,
      "Ġvir": 7171,
      "Ġvac": 7172,
      "Ġvivid": 7173,
      "astly": 7174,
      "Ġtherein": 7175,
      "Ġchuck": 7176,
      "Ġchanging": 7177,
      "unte": 7178,
      "Ġsheet": 7179,
      "ĠPhil": 7180,
      "artment": 7181,
      "Ġunable": 7182,
      "oles": 7183,
      "umm": 7184,
      "osal": 7185,
      "ĠGO": 7186,
      "Ġjun": 7187,
      "Ġjaw": 7188,
      "Ġtheirs": 7189,
      "Ġgoest": 7190,
      "ĠNone": 7191,
      "Ġarise": 7192,
      "Ġplant": 7193,
      "Ġoverheard": 7194,
      "about": 7195,
      "asses": 7196,
      "udder": 7197,
      "Ġener": 7198,
      "urned": 7199,
      "urning": 7200,
      "Ġdaylight": 7201,
      "Ġdownstairs": 7202,
      "Ġflocks": 7203,
      "Ġowner": 7204,
      "Ġpointing": 7205,
      "Ġbacks": 7206,
      "Ġadap": 7207,
      "ĠJap": 7208,
      "Ġeyel": 7209,
      "Ġbetwixt": 7210,
      "Ġcoal": 7211,
      "ĠRunt": 7212,
      "their": 7213,
      "bery": 7214,
      "Ġslave": 7215,
      "Ġcontented": 7216,
      "Ġtext": 7217,
      "Ġaccus": 7218,
      "Ġload": 7219,
      "Ġkey": 7220,
      "Ġpersisted": 7221,
      "Ġcourteous": 7222,
      "Ġbehalf": 7223,
      "Ġsmallest": 7224,
      "Ġsilently": 7225,
      "enson": 7226,
      "Ġappointed": 7227,
      "Ġadvoc": 7228,
      "Ġcharity": 7229,
      "Ġrelieved": 7230,
      "Ġvernac": 7231,
      "Ġexpressed": 7232,
      "Ġ11": 7233,
      "Ġsnake": 7234,
      "Ġremembr": 7235,
      "Ġmoist": 7236,
      "Ġsimplicity": 7237,
      "ĠMcK": 7238,
      "Ġcontinual": 7239,
      "Ġcapacity": 7240,
      "Ġabsent": 7241,
      "ĠKatczinsky": 7242,
      "Ġmodest": 7243,
      "Ġmoderate": 7244,
      "cript": 7245,
      "Ġlowered": 7246,
      "Ġirres": 7247,
      "Ġrealized": 7248,
      "apping": 7249,
      "Ġmerch": 7250,
      "Ġvillages": 7251,
      "Ġveins": 7252,
      "Ġselfishness": 7253,
      "ĠNevertheless": 7254,
      "Ġsadness": 7255,
      "Ġannounced": 7256,
      "Ġuttered": 7257,
      "Ġriddle": 7258,
      "Ġexisted": 7259,
      "ĠBritannulists": 7260,
      "Ġfrighten": 7261,
      "Ġsalv": 7262,
      "Ġbenevol": 7263,
      "Does": 7264,
      "Ġdestined": 7265,
      "Nothing": 7266,
      "Ġnobleman": 7267,
      "Ġapproach": 7268,
      "Ġpenit": 7269,
      "Ġtouching": 7270,
      "Ġgazing": 7271,
      "Ġproudly": 7272,
      "Ġaccordingly": 7273,
      "Ġsenses": 7274,
      "Ġgroans": 7275,
      "Ġprisoners": 7276,
      "Ġgravely": 7277,
      "Ġteacher": 7278,
      "Ġvolunte": 7279,
      "Ġrailroad": 7280,
      "Ġreported": 7281,
      "Ġbelonged": 7282,
      "ĠGovernor": 7283,
      "Ġlifetime": 7284,
      "ĠLeer": 7285,
      "Ġpermission": 7286,
      "ĠShall": 7287,
      "Ġdignified": 7288,
      "Ġrapid": 7289,
      "ENT": 7290,
      "ĠNext": 7291,
      "Ġconnected": 7292,
      "Ġmirror": 7293,
      "Ġplainly": 7294,
      "Ġoperation": 7295,
      "Ġeducated": 7296,
      "ĠMaybe": 7297,
      "Ġperformance": 7298,
      "Ġcandle": 7299,
      "Ġcandid": 7300,
      "Ġjealousy": 7301,
      "standing": 7302,
      "ĠCalista": 7303,
      "Ġimperfect": 7304,
      "Ġgestures": 7305,
      "Ġannoyed": 7306,
      "Ġdestroy": 7307,
      "Ġtempted": 7308,
      "Ġcautiously": 7309,
      "Ġneglected": 7310,
      "ĠProfess": 7311,
      "Ġbench": 7312,
      "Ġfurniture": 7313,
      "Ġwaistcoat": 7314,
      "ĠHonor": 7315,
      "Ġswiftly": 7316,
      "Ġriband": 7317,
      "Ġhammer": 7318,
      "Ġliberty": 7319,
      "Ġcritic": 7320,
      "Ġexperienced": 7321,
      "Ġturban": 7322,
      "ĠSwenson": 7323,
      "Ġlonesomeness": 7324,
      "Ġessential": 7325,
      "Ġcultivator": 7326,
      "Ġindifferent": 7327,
      "Ġunexpected": 7328,
      "Ġplunged": 7329,
      "Ġcrisis": 7330,
      "Ġslippers": 7331,
      "Ġbrigantine": 7332,
      "Ġclumsy": 7333,
      "Ġkilta": 7334,
      "Ġmuffled": 7335,
      "Ġaccompanied": 7336,
      "Ġumbrell": 7337,
      "ĠPotzdor": 7338,
      "ĠMohammedan": 7339,
      "Ġvernacular": 7340,
      "ĠPotzdorff": 7341,
      "Because": 7342,
      "Jack": 7343,
      "Man": 7344,
      "OL": 7345,
      "Qu": 7346,
      "RI": 7347,
      "Tell": 7348,
      "Un": 7349,
      "bish": 7350,
      "bable": 7351,
      "cer": 7352,
      "cart": 7353,
      "came": 7354,
      "fo": 7355,
      "fol": 7356,
      "foot": 7357,
      "got": 7358,
      "little": 7359,
      "mal": 7360,
      "occ": 7361,
      "pes": 7362,
      "past": 7363,
      "pock": 7364,
      "rich": 7365,
      "uits": 7366,
      "why": 7367,
      "xford": 7368,
      "zing": 7369,
      "Ġ8": 7370,
      "Ġtut": 7371,
      "Ġticket": 7372,
      "Ġach": 7373,
      "inarily": 7374,
      "Ġsen": 7375,
      "Ġoil": 7376,
      "atin": 7377,
      "aters": 7378,
      "atisf": 7379,
      "Ġfence": 7380,
      "Ġcoo": 7381,
      "Ġcars": 7382,
      "arling": 7383,
      "ingy": 7384,
      "Ġpoo": 7385,
      "Ġpains": 7386,
      "Ġpowder": 7387,
      "Ġlame": 7388,
      "Ġlace": 7389,
      "Ġinch": 7390,
      "Ġhed": 7391,
      "Ġheap": 7392,
      "Ġnay": 7393,
      "Ġnumer": 7394,
      "Ġhaul": 7395,
      "Ġgown": 7396,
      "owls": 7397,
      "lee": 7398,
      "leth": 7399,
      "ldern": 7400,
      "imp": 7401,
      "icated": 7402,
      "Ġyard": 7403,
      "ĠâĢ¦": 7404,
      "lying": 7405,
      "eteen": 7406,
      "Ġascending": 7407,
      "irmed": 7408,
      "Ġwept": 7409,
      "Ġstare": 7410,
      "Ġrou": 7411,
      "ĠHence": 7412,
      "ĠHappy": 7413,
      "terior": 7414,
      "ĠBony": 7415,
      "Ġshuff": 7416,
      "Ġshining": 7417,
      "Ġsearched": 7418,
      "Ġsugar": 7419,
      "ĠMen": 7420,
      "ĠSadd": 7421,
      "Ġmango": 7422,
      "gered": 7423,
      "Ġkicked": 7424,
      "ĠWagner": 7425,
      "ulated": 7426,
      "quo": 7427,
      "ĠCaden": 7428,
      "ĠColl": 7429,
      "ĠCecil": 7430,
      "oused": 7431,
      "Ġvib": 7432,
      "Ġvale": 7433,
      "Ġchairs": 7434,
      "Ġchival": 7435,
      "Ġfemin": 7436,
      "ĠPers": 7437,
      "Ġknight": 7438,
      "arty": 7439,
      "acket": 7440,
      "Ġunlike": 7441,
      "Ġunquest": 7442,
      "Ġexact": 7443,
      "athom": 7444,
      "Ġlend": 7445,
      "Ġspare": 7446,
      "ĠFree": 7447,
      "Ġgoin": 7448,
      "ĠOval": 7449,
      "Ġtrick": 7450,
      "ĠIts": 7451,
      "Ġblown": 7452,
      "ords": 7453,
      "abb": 7454,
      "Ġclergy": 7455,
      "Ġhandle": 7456,
      "Ġhandker": 7457,
      "Ġenabled": 7458,
      "Ġpron": 7459,
      "Ġprim": 7460,
      "pled": 7461,
      "Ġrogue": 7462,
      "Ġflut": 7463,
      "Ġthrong": 7464,
      "been": 7465,
      "ileo": 7466,
      "ĠRome": 7467,
      "them": 7468,
      "aval": 7469,
      "Ġparting": 7470,
      "Ġpartially": 7471,
      "Ġfoe": 7472,
      "Ġpassages": 7473,
      "Ġindef": 7474,
      "Ġloveth": 7475,
      "Ġcompar": 7476,
      "Ġconsidering": 7477,
      "Ġloaf": 7478,
      "Ġentering": 7479,
      "Ġrecovered": 7480,
      "Ġends": 7481,
      "Ġchildhood": 7482,
      "shot": 7483,
      "arnes": 7484,
      "Thy": 7485,
      "tense": 7486,
      "Ġattach": 7487,
      "ĠVol": 7488,
      "Ġsecre": 7489,
      "Ġhardest": 7490,
      "Ġplays": 7491,
      "Ġbestow": 7492,
      "ĠYoung": 7493,
      "Ġsidewalk": 7494,
      "Ġkinds": 7495,
      "Ġclearing": 7496,
      "ĠChines": 7497,
      "Ġappet": 7498,
      "Ġintrig": 7499,
      "Ġdelay": 7500,
      "Ġassumed": 7501,
      "Ġrestr": 7502,
      "Ġoneself": 7503,
      "Ġreadily": 7504,
      "Ġcareer": 7505,
      "Ġreflect": 7506,
      "Ġlawyer": 7507,
      "Ġtrace": 7508,
      "Ġalongside": 7509,
      "comp": 7510,
      "Ġholds": 7511,
      "Ġwisheth": 7512,
      "Ġcontinue": 7513,
      "anned": 7514,
      "Ġdrops": 7515,
      "Ġcreatures": 7516,
      "Ġfurious": 7517,
      "Ġmadam": 7518,
      "Ġproposition": 7519,
      "Ġwondering": 7520,
      "Ġsummon": 7521,
      "Ġdecide": 7522,
      "Ġextent": 7523,
      "Ġcorps": 7524,
      "Ġdespise": 7525,
      "Ġforthwith": 7526,
      "Ġcentre": 7527,
      "Ġcenturies": 7528,
      "Ġtorment": 7529,
      "Ġrecognise": 7530,
      "Ġdeclare": 7531,
      "Ġmeditation": 7532,
      "ATH": 7533,
      "Ġequip": 7534,
      "Ġprobable": 7535,
      "Ġcommanded": 7536,
      "Ġprecaut": 7537,
      "Ġinquire": 7538,
      "Ġdisposition": 7539,
      "lerable": 7540,
      "Ġengage": 7541,
      "Ġschoolmaster": 7542,
      "Ġwriter": 7543,
      "ĠScot": 7544,
      "Ġpitiful": 7545,
      "Ġsharply": 7546,
      "Ġpassionately": 7547,
      "Ġreports": 7548,
      "Ġcoolies": 7549,
      "Ġattacked": 7550,
      "Ġcrazy": 7551,
      "Ġforests": 7552,
      "Ġturquo": 7553,
      "Ġguessed": 7554,
      "Ġbuildings": 7555,
      "Ġcigar": 7556,
      "Ġsternly": 7557,
      "ĠAbout": 7558,
      "ĠShould": 7559,
      "Ġrespond": 7560,
      "Ġwealthy": 7561,
      "Ġencourage": 7562,
      "Ġtenderness": 7563,
      "Ġfarmer": 7564,
      "ological": 7565,
      "Ġcasual": 7566,
      "Ġdeceived": 7567,
      "Ġdismiss": 7568,
      "Ġsmooth": 7569,
      "Ġpeculiarly": 7570,
      "Ġpursued": 7571,
      "Ġphilosopher": 7572,
      "Ġloudly": 7573,
      "Ġfragments": 7574,
      "Ġdamned": 7575,
      "Ġragged": 7576,
      "Ġfrequently": 7577,
      "Ġconcluded": 7578,
      "Ġwithdraw": 7579,
      "Ġwithdrawn": 7580,
      "Ġexecutive": 7581,
      "Ġpurchased": 7582,
      "Ġceremon": 7583,
      "Ġdestroyed": 7584,
      "Ġcrawl": 7585,
      "Ġcrawled": 7586,
      "Ġspecim": 7587,
      "Ġbarrack": 7588,
      "Ġattract": 7589,
      "Ġcopy": 7590,
      "Ġsquatted": 7591,
      "Ġintellectual": 7592,
      "Ġfestival": 7593,
      "Ġseventy": 7594,
      "Ġindignation": 7595,
      "Ġexhib": 7596,
      "Ġpreachers": 7597,
      "Ġadopted": 7598,
      "Ġaffliction": 7599,
      "Ġmingled": 7600,
      "Ġambition": 7601,
      "Ġpreceding": 7602,
      "Ġeloquence": 7603,
      "Ġconsolation": 7604,
      "Ġbewildered": 7605,
      "Ġintimacy": 7606,
      "Ġobservation": 7607,
      "Ġfantastic": 7608,
      "Ġliquor": 7609,
      "ĠPolice": 7610,
      "Ġbazaar": 7611,
      "Ġshepherd": 7612,
      "aviour": 7613,
      "Ġmaterial": 7614,
      "Ġhabits": 7615,
      "Ġrabble": 7616,
      "ĠBengali": 7617,
      "Ġseclusion": 7618,
      "idelity": 7619,
      "Ġplatform": 7620,
      "Ġmagnificent": 7621,
      "Ġpilgrimage": 7622,
      "Ġhorizon": 7623,
      "Ġlinen": 7624,
      "stretched": 7625,
      "ĠProfessor": 7626,
      "ĠCadenet": 7627,
      "Ġunquestion": 7628,
      "Ġhandkerchief": 7629,
      "ĠChinese": 7630,
      "\".": 7631,
      ";'": 7632,
      "LE": 7633,
      "None": 7634,
      "Tis": 7635,
      "ael": 7636,
      "aise": 7637,
      "cross": 7638,
      "fire": 7639,
      "great": 7640,
      "girl": 7641,
      "greg": 7642,
      "iant": 7643,
      "ieth": 7644,
      "iage": 7645,
      "iarty": 7646,
      "kward": 7647,
      "lest": 7648,
      "mity": 7649,
      "mpt": 7650,
      "minded": 7651,
      "nor": 7652,
      "nut": 7653,
      "pres": 7654,
      "rust": 7655,
      "tw": 7656,
      "tell": 7657,
      "two": 7658,
      "wig": 7659,
      "zed": 7660,
      "Ġax": 7661,
      "inations": 7662,
      "inction": 7663,
      "Ġhush": 7664,
      "erted": 7665,
      "erately": 7666,
      "erks": 7667,
      "Ġmap": 7668,
      "Ġbust": 7669,
      "Ġbite": 7670,
      "Ġbills": 7671,
      "itched": 7672,
      "once": 7673,
      "Ġthumb": 7674,
      "Ġdun": 7675,
      "Ġdig": 7676,
      "anqu": 7677,
      "Ġpour": 7678,
      "Ġpoured": 7679,
      "Ġlun": 7680,
      "Ġheal": 7681,
      "Ġnet": 7682,
      "Ġbellow": 7683,
      "Ġbeads": 7684,
      "Ġhaunted": 7685,
      "Ġgig": 7686,
      "Ġgait": 7687,
      "Ġgained": 7688,
      "Ġgarr": 7689,
      "leton": 7690,
      "imately": 7691,
      "icial": 7692,
      "Ġec": 7693,
      "Ġego": 7694,
      "seth": 7695,
      "Ġyawn": 7696,
      "Ġwhirl": 7697,
      "Ġonward": 7698,
      "eter": 7699,
      "enteen": 7700,
      "Ġfors": 7701,
      "alted": 7702,
      "Ġstif": 7703,
      "Ġstating": 7704,
      "Ġstately": 7705,
      "Ġstaff": 7706,
      "ĠHath": 7707,
      "Ġshy": 7708,
      "Ġshine": 7709,
      "Ġshiver": 7710,
      "Ġselect": 7711,
      "Ġherd": 7712,
      "rog": 7713,
      "Ġsullen": 7714,
      "ĠMon": 7715,
      "Ġdeuce": 7716,
      "ĠSher": 7717,
      "ĠSqu": 7718,
      "ichael": 7719,
      "rive": 7720,
      "ĠWison": 7721,
      "ustice": 7722,
      "Ġupwards": 7723,
      "ula": 7724,
      "ĠCont": 7725,
      "Ġalight": 7726,
      "ieu": 7727,
      "top": 7728,
      "tofore": 7729,
      "Ġlibr": 7730,
      "ĠPoy": 7731,
      "Ġoutl": 7732,
      "Ġoutline": 7733,
      "Ġunw": 7734,
      "Ġunlearn": 7735,
      "Ġexalted": 7736,
      "ĠLO": 7737,
      "istinct": 7738,
      "Ġspared": 7739,
      "Ġaged": 7740,
      "ĠFate": 7741,
      "ĠFreedom": 7742,
      "elly": 7743,
      "Ġgoeth": 7744,
      "ĠOri": 7745,
      "ĠOther": 7746,
      "ĠOft": 7747,
      "ĠEd": 7748,
      "Ġtram": 7749,
      "Ġcann": 7750,
      "âĢĶ\"": 7751,
      "Ġplaster": 7752,
      "Ġplanted": 7753,
      "Ġbrick": 7754,
      "Ġbrush": 7755,
      "Ġproverb": 7756,
      "abs": 7757,
      "Ġclick": 7758,
      "Ġclock": 7759,
      "Ġench": 7760,
      "Ġlooketh": 7761,
      "Ġroot": 7762,
      "Ġroaring": 7763,
      "Ġdownward": 7764,
      "Ġperception": 7765,
      "Ġponder": 7766,
      "angled": 7767,
      "bearded": 7768,
      "Ġadore": 7769,
      "Ġpeer": 7770,
      "Ġpeep": 7771,
      "Ġscent": 7772,
      "Ġscand": 7773,
      "Ġscient": 7774,
      "Ġpreach": 7775,
      "Ġeveryone": 7776,
      "Ġspeck": 7777,
      "ĠRE": 7778,
      "Ġstillness": 7779,
      "Ġreminded": 7780,
      "Ġcrooked": 7781,
      "actory": 7782,
      "Ġindul": 7783,
      "Ġinduced": 7784,
      "Ġcontact": 7785,
      "cloth": 7786,
      "Ġimpressed": 7787,
      "onsider": 7788,
      "Ġseriously": 7789,
      "Ġloft": 7790,
      "ictions": 7791,
      "Ġgenteel": 7792,
      "Ġcommit": 7793,
      "Ġcommence": 7794,
      "Ġdrummer": 7795,
      "Thank": 7796,
      "force": 7797,
      "Ġdreary": 7798,
      "Ġkindred": 7799,
      "Ġstandeth": 7800,
      "Ġeminent": 7801,
      "Ġempire": 7802,
      "Ġpurple": 7803,
      "ĠChin": 7804,
      "Ġterribly": 7805,
      "Ġawkward": 7806,
      "ruction": 7807,
      "Ġassum": 7808,
      "Ġpersonage": 7809,
      "Ġslee": 7810,
      "Ġsurmount": 7811,
      "Ġinterval": 7812,
      "Ġpleasures": 7813,
      "rowing": 7814,
      "Ġrelative": 7815,
      "Ġsket": 7816,
      "ĠProtest": 7817,
      "Ġtragedy": 7818,
      "Ġparade": 7819,
      "Ġvisited": 7820,
      "Ġopposed": 7821,
      "Ġaddition": 7822,
      "Ġcreaking": 7823,
      "Ġcreeping": 7824,
      "Ġjolly": 7825,
      "brows": 7826,
      "ĠWithout": 7827,
      "Ġconditions": 7828,
      "Ġpatri": 7829,
      "Ġcolony": 7830,
      "Ġestim": 7831,
      "Ġadmire": 7832,
      "Ġcirc": 7833,
      "Ġwildly": 7834,
      "ĠColumb": 7835,
      "Ġmodesty": 7836,
      "Ġpapa": 7837,
      "Ġdealt": 7838,
      "Ġpossessions": 7839,
      "Ġprett": 7840,
      "Ġdespatched": 7841,
      "Ġgardens": 7842,
      "Ġleader": 7843,
      "Ġquarre": 7844,
      "Ġmarks": 7845,
      "Ġcastle": 7846,
      "Ġdeclined": 7847,
      "Ġposterity": 7848,
      "Ġprevented": 7849,
      "Ġsinister": 7850,
      "Ġrepeat": 7851,
      "Ġdisposed": 7852,
      "Ġpenny": 7853,
      "Ġconviction": 7854,
      "Ġsensation": 7855,
      "Ġoccupation": 7856,
      "Ġpaths": 7857,
      "Ġpassionate": 7858,
      "Ġexamined": 7859,
      "Ġmission": 7860,
      "Ġsympathe": 7861,
      "Ġbowl": 7862,
      "Ġghastly": 7863,
      "Ġdelicacy": 7864,
      "ĠArt": 7865,
      "Ġunfamiliar": 7866,
      "Ġflew": 7867,
      "Ġthreatening": 7868,
      "Ġlabour": 7869,
      "Ġvalleys": 7870,
      "Ġlacking": 7871,
      "Ġinjustice": 7872,
      "Ġshooting": 7873,
      "Ġwitnessed": 7874,
      "Ġsorrowful": 7875,
      "Ġindicate": 7876,
      "Ġhuts": 7877,
      "Ġpursuit": 7878,
      "Ġarrangement": 7879,
      "Ġodds": 7880,
      "Ġbleeding": 7881,
      "Ġweapons": 7882,
      "Yea": 7883,
      "Ġtumult": 7884,
      "Ġemployed": 7885,
      "Ġtravelled": 7886,
      "Ġcroak": 7887,
      "Ġbaby": 7888,
      "Ġstaggered": 7889,
      "Ġbayonet": 7890,
      "Ġdefend": 7891,
      "Ġhurrying": 7892,
      "Ġproduc": 7893,
      "Ġpolitical": 7894,
      "Ġfilth": 7895,
      "Ġdebts": 7896,
      "Ġwreck": 7897,
      "Ġporch": 7898,
      "ĠPlains": 7899,
      "Ġpreferred": 7900,
      "Ġprinciple": 7901,
      "Ġgaunt": 7902,
      "Ġsubmit": 7903,
      "Ġtossed": 7904,
      "Ġultimate": 7905,
      "Ġdesperate": 7906,
      "Ġarticle": 7907,
      "Ġtyranny": 7908,
      "Ġrenewed": 7909,
      "Ġdiscerning": 7910,
      "Ġnewspaper": 7911,
      "writer": 7912,
      "Ġrotten": 7913,
      "ĠMadame": 7914,
      "Ġstaircase": 7915,
      "iveness": 7916,
      "ĠMoreover": 7917,
      "APTER": 7918,
      "Mahbub": 7919,
      "Ġcellar": 7920,
      "Ġraising": 7921,
      "Ġcorrect": 7922,
      "ĠCompany": 7923,
      "Ġexhausted": 7924,
      "ĠGalileo": 7925,
      "Ġgnaw": 7926,
      "Ġleisure": 7927,
      "Ġcelebrated": 7928,
      "Ġmajority": 7929,
      "Ġmoustache": 7930,
      "Ġconveyed": 7931,
      "ĠGreek": 7932,
      "Ġencounter": 7933,
      "Ġunlucky": 7934,
      "SELF": 7935,
      "Ġwrapped": 7936,
      "ĠScowrers": 7937,
      "Ġlorries": 7938,
      "ĠSawyer": 7939,
      "ĠDarkness": 7940,
      "uptuousness": 7941,
      "ĠMcKee": 7942,
      "Ġnumerous": 7943,
      "ĠSaddhu": 7944,
      "Ġfeminine": 7945,
      "Ġlibrary": 7946,
      "ĠPoynings": 7947,
      "ĠColumbus": 7948,
      "After": 7949,
      "Faith": 7950,
      "Miss": 7951,
      "Mrs": 7952,
      "Such": 7953,
      "Tjaden": 7954,
      "Wait": 7955,
      "bred": 7956,
      "cip": 7957,
      "caste": 7958,
      "citizens": 7959,
      "craft": 7960,
      "lers": 7961,
      "lorn": 7962,
      "mur": 7963,
      "mother": 7964,
      "oir": 7965,
      "rowed": 7966,
      "sy": 7967,
      "serv": 7968,
      "watch": 7969,
      "Ġting": 7970,
      "hem": 7971,
      "hew": 7972,
      "heart": 7973,
      "Ġaunt": 7974,
      "inter": 7975,
      "Ġwicket": 7976,
      "Ġsord": 7977,
      "Ġoak": 7978,
      "rec": 7979,
      "reem": 7980,
      "Ġhinted": 7981,
      "Ġmild": 7982,
      "Ġmoss": 7983,
      "Ġbone": 7984,
      "Ġbol": 7985,
      "itably": 7986,
      "Ġfitted": 7987,
      "Ġfoul": 7988,
      "Ġfulf": 7989,
      "Ġcu": 7990,
      "Ġcush": 7991,
      "enes": 7992,
      "Ġtomb": 7993,
      "Ġtones": 7994,
      "onies": 7995,
      "Ġdate": 7996,
      "Ġdried": 7997,
      "Ġdaz": 7998,
      "Ġdashed": 7999,
      "Ġdashing": 8000,
      "orlock": 8001,
      "arc": 8002,
      "anter": 8003,
      "Ġpars": 8004,
      "Ġpubl": 8005,
      "Ġlosing": 8006,
      "Ġgates": 8007,
      "Ġginger": 8008,
      "othe": 8009,
      "utch": 8010,
      "sters": 8011,
      "Ġeman": 8012,
      "ĠTed": 8013,
      "Ġreign": 8014,
      "Ġreform": 8015,
      "Ġreception": 8016,
      "adre": 8017,
      "Ġforces": 8018,
      "alty": 8019,
      "Ġwearing": 8020,
      "Ġweeping": 8021,
      "Ġstat": 8022,
      "ioned": 8023,
      "Ġrice": 8024,
      "ĠHE": 8025,
      "ĠBarnes": 8026,
      "Ġshattered": 8027,
      "chin": 8028,
      "ĠAustri": 8029,
      "Ġseam": 8030,
      "Ġsage": 8031,
      "Ġsubl": 8032,
      "Ġsuited": 8033,
      "ĠMister": 8034,
      "Ġsober": 8035,
      "Ġdeem": 8036,
      "ĠSat": 8037,
      "Ġmanly": 8038,
      "rab": 8039,
      "ĠWisdom": 8040,
      "Ġbutcher": 8041,
      "ĠCor": 8042,
      "ĠCorn": 8043,
      "ĠCrow": 8044,
      "Ġwholes": 8045,
      "blem": 8046,
      "Ġvicious": 8047,
      "Ġchall": 8048,
      "Ġfem": 8049,
      "ĠPart": 8050,
      "Ġunaw": 8051,
      "Ġexert": 8052,
      "ĠLili": 8053,
      "ĠLodge": 8054,
      "osure": 8055,
      "Ġleaped": 8056,
      "isten": 8057,
      "Ġsplin": 8058,
      "Ġagitation": 8059,
      "ĠFive": 8060,
      "ĠFort": 8061,
      "ĠFear": 8062,
      "agne": 8063,
      "ĠNE": 8064,
      "ĠNuck": 8065,
      "ĠOory": 8066,
      "ĠOxford": 8067,
      "Ġusing": 8068,
      "Ġquitted": 8069,
      "ĠDes": 8070,
      "Ġprolong": 8071,
      "Ġhowling": 8072,
      "Ġblowing": 8073,
      "aret": 8074,
      "ibilities": 8075,
      "udes": 8076,
      "udent": 8077,
      "Ġenlight": 8078,
      "Ġprinted": 8079,
      "Ġlonged": 8080,
      "places": 8081,
      "necess": 8082,
      "cheth": 8083,
      "Ġflushed": 8084,
      "Ġthrone": 8085,
      "ĠJim": 8086,
      "ĠJune": 8087,
      "ĠJames": 8088,
      "blance": 8089,
      "everal": 8090,
      "Ġheretofore": 8091,
      "Ġcoarse": 8092,
      "ĠRather": 8093,
      "ĠRec": 8094,
      "thest": 8095,
      "rences": 8096,
      "Ġcrushed": 8097,
      "Ġthoughtful": 8098,
      "Ġinduce": 8099,
      "Ġindistinct": 8100,
      "Ġcontribut": 8101,
      "Ġreserved": 8102,
      "hension": 8103,
      "Ġrecent": 8104,
      "Ġcommitted": 8105,
      "Ġfounded": 8106,
      "Ġdroop": 8107,
      "Ġcounted": 8108,
      "Ġregards": 8109,
      "Ġdoorstep": 8110,
      "Ġattent": 8111,
      "Ġharder": 8112,
      "Ġfinds": 8113,
      "ĠAlready": 8114,
      "ĠAlthough": 8115,
      "Ġwinds": 8116,
      "Ġbestowing": 8117,
      "Ġmothers": 8118,
      "Ġgraves": 8119,
      "Ġembr": 8120,
      "pleasant": 8121,
      "Ġapple": 8122,
      "ĠStars": 8123,
      "Ġhonesty": 8124,
      "Ġsurre": 8125,
      "Ġsurface": 8126,
      "Ġdarkened": 8127,
      "Ġsunlight": 8128,
      "Ġrestored": 8129,
      "Ġtread": 8130,
      "ĠTHIS": 8131,
      "Ġreluct": 8132,
      "Ġsuffoc": 8133,
      "Ġstealth": 8134,
      "Ġofficial": 8135,
      "Ġpolished": 8136,
      "Ġsniff": 8137,
      "Ġtraits": 8138,
      "Ġmoat": 8139,
      "Ġmold": 8140,
      "Ġvisits": 8141,
      "comm": 8142,
      "Ġlandsc": 8143,
      "ĠBarryville": 8144,
      "vales": 8145,
      "Ġdropping": 8146,
      "aimio": 8147,
      "Ġstrongly": 8148,
      "ocr": 8149,
      "ĠSec": 8150,
      "Ġbreaks": 8151,
      "Ġsymb": 8152,
      "Ġpayment": 8153,
      "ference": 8154,
      "engarten": 8155,
      "Ġpurposes": 8156,
      "axed": 8157,
      "Ġfreely": 8158,
      "Ġirrit": 8159,
      "Ġsixteen": 8160,
      "Ġhonours": 8161,
      "Ġinterests": 8162,
      "Ġedifice": 8163,
      "ĠXX": 8164,
      "lao": 8165,
      "Ġconsiderably": 8166,
      "Ġbreathless": 8167,
      "ĠBehind": 8168,
      "Ġaccommod": 8169,
      "Ġblessings": 8170,
      "Ġbeggars": 8171,
      "Ġtort": 8172,
      "Ġyouthful": 8173,
      "Ġmedium": 8174,
      "Ġattempting": 8175,
      "Ġdelightful": 8176,
      "Ġsweetme": 8177,
      "Ġceas": 8178,
      "Ġpostp": 8179,
      "Ġbrighter": 8180,
      "Ġremaining": 8181,
      "Ġclothing": 8182,
      "lets": 8183,
      "Ġdemands": 8184,
      "ĠGeldern": 8185,
      "Ġbreadth": 8186,
      "Ġoccupy": 8187,
      "spector": 8188,
      "Ġlimp": 8189,
      "Ġmeantime": 8190,
      "Ġmissed": 8191,
      "Ġdisgrace": 8192,
      "Ġtongues": 8193,
      "Ġoblit": 8194,
      "Ġbowels": 8195,
      "Ġclaims": 8196,
      "Ġhens": 8197,
      "ĠArrow": 8198,
      "Ġproceeded": 8199,
      "Ġmurderers": 8200,
      "ĠWhether": 8201,
      "Ġfoliage": 8202,
      "Ġodour": 8203,
      "Ġadvantages": 8204,
      "Ġinjured": 8205,
      "Ġroughly": 8206,
      "looked": 8207,
      "Ġrejoice": 8208,
      "Ġsolemnly": 8209,
      "Ġaffectionate": 8210,
      "Ġestablish": 8211,
      "Ġestablishment": 8212,
      "Ġentertained": 8213,
      "Ġtrader": 8214,
      "Ġinstincts": 8215,
      "000": 8216,
      "Ġbeggarly": 8217,
      "Ġrags": 8218,
      "Ġdeeds": 8219,
      "Ġscores": 8220,
      "Ġconsequences": 8221,
      "Ġgrinning": 8222,
      "Ġpersuaded": 8223,
      "Ġreckon": 8224,
      "Ġprocession": 8225,
      "ĠUpon": 8226,
      "Ġapplied": 8227,
      "Ġextremely": 8228,
      "Ġromance": 8229,
      "Ġdisappointment": 8230,
      "Ġdissol": 8231,
      "smith": 8232,
      "Ġimprove": 8233,
      "Ġ188": 8234,
      "Ġdusky": 8235,
      "Ġpistols": 8236,
      "Ġcoachman": 8237,
      "Ġchampagne": 8238,
      "Ġepoch": 8239,
      "Ġultimately": 8240,
      "ĠWHAT": 8241,
      "ustrious": 8242,
      "Ġexchanged": 8243,
      "Ġinvoluntarily": 8244,
      "Ġnewspapers": 8245,
      "Ġpearls": 8246,
      "Ġwarrior": 8247,
      "Ġwarriors": 8248,
      "Ġlouis": 8249,
      "Ġdocument": 8250,
      "ĠComm": 8251,
      "Ġdesirable": 8252,
      "Ġdrowned": 8253,
      "Ġmethods": 8254,
      "Ġpuzzled": 8255,
      "Ġnineteen": 8256,
      "Ġcloak": 8257,
      "Ġinterfere": 8258,
      "sighted": 8259,
      "ĠBallybarry": 8260,
      "ĠEternity": 8261,
      "Ġprodigious": 8262,
      "About": 8263,
      "fashioned": 8264,
      "Ġbasket": 8265,
      "Ġelectric": 8266,
      "ĠSurvey": 8267,
      "Ġardent": 8268,
      "Ġswallowed": 8269,
      "Ġshrewd": 8270,
      "Ġdangers": 8271,
      "Ġstolen": 8272,
      "Ġremembrance": 8273,
      "Ġirresist": 8274,
      "Ġumbrella": 8275,
      "ĠCollege": 8276,
      "Ġsecrecy": 8277,
      "Ġgigantic": 8278,
      "ichaelis": 8279,
      "Ġscandal": 8280,
      "Ġscientific": 8281,
      "ĠLiliengarten": 8282,
      "ĠNucklao": 8283,
      "\";": 8284,
      "De": 8285,
      "GE": 8286,
      "Get": 8287,
      "Ha": 8288,
      "ION": 8289,
      "Nor": 8290,
      "Re": 8291,
      "UL": 8292,
      "bes": 8293,
      "bowl": 8294,
      "ciously": 8295,
      "eur": 8296,
      "eches": 8297,
      "fall": 8298,
      "gard": 8299,
      "give": 8300,
      "han": 8301,
      "iate": 8302,
      "iature": 8303,
      "ki": 8304,
      "ma": 8305,
      "much": 8306,
      "ration": 8307,
      "tur": 8308,
      "uf": 8309,
      "uish": 8310,
      "vin": 8311,
      "wood": 8312,
      "wife": 8313,
      "Ġta": 8314,
      "Ġtunic": 8315,
      "Ġastr": 8316,
      "Ġwaving": 8317,
      "Ġwaves": 8318,
      "Ġwiped": 8319,
      "Ġsack": 8320,
      "Ġox": 8321,
      "Ġhue": 8322,
      "Ġhatch": 8323,
      "Ġmould": 8324,
      "Ġmast": 8325,
      "Ġmute": 8326,
      "Ġmale": 8327,
      "Ġmourn": 8328,
      "isk": 8329,
      "isp": 8330,
      "Ġferv": 8331,
      "Ġfiring": 8332,
      "Ġfidelity": 8333,
      "Ġcy": 8334,
      "Ġcul": 8335,
      "Ġcous": 8336,
      "Ġcitizens": 8337,
      "enn": 8338,
      "onse": 8339,
      "Ġdies": 8340,
      "Ġduc": 8341,
      "Ġdarling": 8342,
      "Ġdaimio": 8343,
      "lls": 8344,
      "llers": 8345,
      "Ġpul": 8346,
      "Ġpious": 8347,
      "Ġpaw": 8348,
      "Ġpian": 8349,
      "Ġpawn": 8350,
      "Ġlump": 8351,
      "Ġinches": 8352,
      "ĠIse": 8353,
      "Ġheel": 8354,
      "Ġnerves": 8355,
      "Ġbears": 8356,
      "Ġbeings": 8357,
      "Ġbeans": 8358,
      "Ġhaunt": 8359,
      "Ġgust": 8360,
      "oward": 8361,
      "utions": 8362,
      "icle": 8363,
      "stru": 8364,
      "idious": 8365,
      "ĠTen": 8366,
      "ĠTem": 8367,
      "cean": 8368,
      "Ġrein": 8369,
      "Ġreass": 8370,
      "Ġforlorn": 8371,
      "urable": 8372,
      "urrence": 8373,
      "Ġweeds": 8374,
      "Ġraw": 8375,
      "amer": 8376,
      "ĠBless": 8377,
      "ĠBeyond": 8378,
      "ĠBrah": 8379,
      "keys": 8380,
      "allel": 8381,
      "Ġherds": 8382,
      "ĠMe": 8383,
      "thus": 8384,
      "things": 8385,
      "through": 8386,
      "Ġdeaf": 8387,
      "ĠSU": 8388,
      "ĠSurely": 8389,
      "people": 8390,
      "rived": 8391,
      "Ġupstairs": 8392,
      "quiet": 8393,
      "ĠCody": 8394,
      "Ġalt": 8395,
      "ushes": 8396,
      "asty": 8397,
      "Ġconception": 8398,
      "Ġconvales": 8399,
      "ppose": 8400,
      "Ġchoo": 8401,
      "Ġchanges": 8402,
      "unge": 8403,
      "unters": 8404,
      "Ġfeather": 8405,
      "Ġliver": 8406,
      "Ġliken": 8407,
      "ĠPh": 8408,
      "Ġoutrage": 8409,
      "Ġoutstretched": 8410,
      "acked": 8411,
      "Ġungr": 8412,
      "Ġexterior": 8413,
      "ĠLew": 8414,
      "ĠLarry": 8415,
      "ĠLatin": 8416,
      "apes": 8417,
      "umerable": 8418,
      "Ġwillingly": 8419,
      "istered": 8420,
      "itteth": 8421,
      "Ġabund": 8422,
      "Ġspy": 8423,
      "cks": 8424,
      "Ġjing": 8425,
      "Ġjail": 8426,
      "ĠFreem": 8427,
      "again": 8428,
      "rying": 8429,
      "Ġtrains": 8430,
      "Ġtrump": 8431,
      "Ġtrunk": 8432,
      "Ġtricks": 8433,
      "orthern": 8434,
      "Ġplot": 8435,
      "inkling": 8436,
      "Ġsayest": 8437,
      "Ġclen": 8438,
      "Ġclamber": 8439,
      "Ġclaret": 8440,
      "Ġlongest": 8441,
      "Ġoffering": 8442,
      "Ġgoods": 8443,
      "Ġgrind": 8444,
      "Ġsmashed": 8445,
      "Ġsmiles": 8446,
      "Ġflatter": 8447,
      "Ġflinging": 8448,
      "Ġthrill": 8449,
      "Ġthrowing": 8450,
      "bear": 8451,
      "Ġpeb": 8452,
      "Ġpeas": 8453,
      "Ġscale": 8454,
      "Ġscales": 8455,
      "Ġscrap": 8456,
      "Ġscenes": 8457,
      "blest": 8458,
      "blood": 8459,
      "Ġprem": 8460,
      "atherine": 8461,
      "Ġspecul": 8462,
      "Ġcob": 8463,
      "Ġwayside": 8464,
      "Ġremed": 8465,
      "Ġswine": 8466,
      "Ġswarm": 8467,
      "Ġdesolate": 8468,
      "Ġworldly": 8469,
      "Ġshallow": 8470,
      "ciples": 8471,
      "Ġresour": 8472,
      "Ġaccent": 8473,
      "Ġnewly": 8474,
      "Ġconsult": 8475,
      "Ġconspir": 8476,
      "awur": 8477,
      "Ġboarding": 8478,
      "Ġsecure": 8479,
      "ĠAlmost": 8480,
      "ĠAlmighty": 8481,
      "ĠAsi": 8482,
      "Ġchecked": 8483,
      "Ġcurrent": 8484,
      "Ġcleared": 8485,
      "ĠChurch": 8486,
      "Ġactors": 8487,
      "Ġinsist": 8488,
      "Ġadvancing": 8489,
      "Ġappeal": 8490,
      "irtue": 8491,
      "Ġpersonally": 8492,
      "Ġmonarch": 8493,
      "Ġtremend": 8494,
      "Ġminiature": 8495,
      "Ġsincere": 8496,
      "eker": 8497,
      "Ġcareless": 8498,
      "Ġinvari": 8499,
      "Ġsuffice": 8500,
      "Ġservices": 8501,
      "Ġdoubts": 8502,
      "Ġlawyers": 8503,
      "Ġwalks": 8504,
      "Ġ16": 8505,
      "Ġsnapped": 8506,
      "Ġtragic": 8507,
      "Ġlively": 8508,
      "Ġgenerations": 8509,
      "Ġparable": 8510,
      "Ġcrem": 8511,
      "Ġfourteen": 8512,
      "Ġelection": 8513,
      "Ġbargain": 8514,
      "Ġfurthest": 8515,
      "ĠSea": 8516,
      "Ġsignal": 8517,
      "Ġnecessarily": 8518,
      "Ġadmin": 8519,
      "Ġsounded": 8520,
      "Ġangle": 8521,
      "Ġanguish": 8522,
      "Ġcorporal": 8523,
      "Ġgrounds": 8524,
      "cribed": 8525,
      "Ġremembering": 8526,
      "Ġfavourable": 8527,
      "ĠIsles": 8528,
      "Ġyelling": 8529,
      "ĠBehold": 8530,
      "Ġexcuse": 8531,
      "Ġtempor": 8532,
      "Ġwitch": 8533,
      "Ġshoe": 8534,
      "Ġrecognition": 8535,
      "Ġsickly": 8536,
      "Ġcaress": 8537,
      "Ġdestruction": 8538,
      "Ġcalcul": 8539,
      "Ġsuperfl": 8540,
      "Ġwoods": 8541,
      "Ġantagon": 8542,
      "Ġengine": 8543,
      "Ġcomplex": 8544,
      "Ġpractically": 8545,
      "Ġexclam": 8546,
      "cellency": 8547,
      "Ġrevealed": 8548,
      "OULD": 8549,
      "Ġpunish": 8550,
      "Ġaccordance": 8551,
      "Ġwrites": 8552,
      "Ġsensible": 8553,
      "Ġwearied": 8554,
      "Ġweariness": 8555,
      "INE": 8556,
      "Ġharps": 8557,
      "Ġgroaned": 8558,
      "Ġmorality": 8559,
      "Ġprotest": 8560,
      "Ġhillman": 8561,
      "Ġthrob": 8562,
      "Ġembro": 8563,
      "Ġutterance": 8564,
      "Ġwretch": 8565,
      "Ġmaintain": 8566,
      "Ġphysician": 8567,
      "Ġbells": 8568,
      "Ġboxes": 8569,
      "Ġgarments": 8570,
      "ouraged": 8571,
      "eshawur": 8572,
      "Ġacquaintances": 8573,
      "Ġstrode": 8574,
      "Ġresponse": 8575,
      "Ġwander": 8576,
      "Ġstretch": 8577,
      "Ġeldest": 8578,
      "Ġprinciples": 8579,
      "ĠMoriarty": 8580,
      "Ġtestimony": 8581,
      "ends": 8582,
      "Ġtriumphant": 8583,
      "Ġghosts": 8584,
      "Ġghostly": 8585,
      "Ġhospitality": 8586,
      "Ġfragrance": 8587,
      "Ġincrease": 8588,
      "Ġholes": 8589,
      "Ġroofs": 8590,
      "Ġugliest": 8591,
      "Ġwithdrew": 8592,
      "Ġdisgusted": 8593,
      "Ġjudgment": 8594,
      "Ġresults": 8595,
      "Ġtravelling": 8596,
      "Ġannoyance": 8597,
      "Ġinterpre": 8598,
      "Ġmillion": 8599,
      "Ġborrowed": 8600,
      "iliation": 8601,
      "Ġhideous": 8602,
      "ĠRussia": 8603,
      "Ġspectacles": 8604,
      "Ġbranch": 8605,
      "Ġbalance": 8606,
      "Ġabandon": 8607,
      "Ġdragon": 8608,
      "VIII": 8609,
      "Ġamidst": 8610,
      "Ġawaiting": 8611,
      "Ġobscure": 8612,
      "Ġissued": 8613,
      "Ġchampion": 8614,
      "Ġprocure": 8615,
      "Ġrigid": 8616,
      "ĠKiljoy": 8617,
      "Ġtrifling": 8618,
      "Ġrichest": 8619,
      "Ġvaguely": 8620,
      "Ġanchorite": 8621,
      "Ġgrieved": 8622,
      "Ġreproach": 8623,
      "Ġhorns": 8624,
      "Ġmeasures": 8625,
      "Ġobviously": 8626,
      "Ġexplosions": 8627,
      "Ġneighborhood": 8628,
      "Ġextravagance": 8629,
      "Ġvexation": 8630,
      "Ġassembled": 8631,
      "Ġpotatoes": 8632,
      "Clifford": 8633,
      "Ġbattles": 8634,
      "Ġparaly": 8635,
      "Ġridiculous": 8636,
      "Ġforecastle": 8637,
      "Ġindependent": 8638,
      "Ġelaborate": 8639,
      "Ġdeliberately": 8640,
      "ĠPathan": 8641,
      "Ġabruptly": 8642,
      "Ġoffended": 8643,
      "ĠGraybody": 8644,
      "Ġvalet": 8645,
      "Ġappetite": 8646,
      "Ġsummoned": 8647,
      "Ġgarrison": 8648,
      "Ġecst": 8649,
      "Ġsordid": 8650,
      "ĠAustrian": 8651,
      "Ġwholesome": 8652,
      "Ġfemale": 8653,
      "Ġcousins": 8654,
      "Ġsuperfluous": 8655,
      "!)": 8656,
      "CK": 8657,
      "FORE": 8658,
      "IE": 8659,
      "IM": 8660,
      "IX": 8661,
      "Ind": 8662,
      "NT": 8663,
      "Red": 8664,
      "Theriere": 8665,
      "VER": 8666,
      "],": 8667,
      "bar": 8668,
      "bot": 8669,
      "cur": 8670,
      "creat": 8671,
      "corn": 8672,
      "every": 8673,
      "fr": 8674,
      "field": 8675,
      "gen": 8676,
      "gones": 8677,
      "grand": 8678,
      "hin": 8679,
      "hau": 8680,
      "half": 8681,
      "may": 8682,
      "mist": 8683,
      "maj": 8684,
      "pro": 8685,
      "phew": 8686,
      "rat": 8687,
      "sil": 8688,
      "sho": 8689,
      "sman": 8690,
      "suff": 8691,
      "such": 8692,
      "Ġtipto": 8693,
      "Ġaugust": 8694,
      "inated": 8695,
      "inci": 8696,
      "inement": 8697,
      "Ġthel": 8698,
      "Ġwink": 8699,
      "Ġwont": 8700,
      "Ġsway": 8701,
      "Ġsisters": 8702,
      "Ġsarc": 8703,
      "Ġoaken": 8704,
      "Ġowed": 8705,
      "reen": 8706,
      "Ġhanged": 8707,
      "eral": 8708,
      "erated": 8709,
      "erving": 8710,
      "Ġmudd": 8711,
      "Ġmirth": 8712,
      "Ġbred": 8713,
      "Ġbund": 8714,
      "Ġbache": 8715,
      "athed": 8716,
      "itively": 8717,
      "isions": 8718,
      "Ġfund": 8719,
      "Ġfaster": 8720,
      "Ġfreed": 8721,
      "Ġcough": 8722,
      "Ġcip": 8723,
      "Ġcash": 8724,
      "Ġcured": 8725,
      "Ġcott": 8726,
      "Ġtoes": 8727,
      "Ġtoil": 8728,
      "only": 8729,
      "oration": 8730,
      "orable": 8731,
      "lley": 8732,
      "arnt": 8733,
      "arious": 8734,
      "Ġpine": 8735,
      "Ġpuff": 8736,
      "Ġpett": 8737,
      "Ġpushing": 8738,
      "Ġlaz": 8739,
      "Ġlunch": 8740,
      "Ġintense": 8741,
      "Ġhears": 8742,
      "Ġnut": 8743,
      "Ġnerve": 8744,
      "Ġgut": 8745,
      "icide": 8746,
      "icable": 8747,
      "Ġet": 8748,
      "Ġeth": 8749,
      "Ġeating": 8750,
      "iders": 8751,
      "Ġugl": 8752,
      "ĠTime": 8753,
      "ĠTirth": 8754,
      "Ġrever": 8755,
      "Ġrecl": 8756,
      "Ġreject": 8757,
      "Ġwears": 8758,
      "Ġstated": 8759,
      "Ġstables": 8760,
      "Ġrud": 8761,
      "Ġratt": 8762,
      "Ġraces": 8763,
      "Ġnothin": 8764,
      "oond": 8765,
      "ammed": 8766,
      "ĠBoth": 8767,
      "ĠBecause": 8768,
      "kered": 8769,
      "Ġshaken": 8770,
      "Ġshifted": 8771,
      "Ġselected": 8772,
      "Ġherald": 8773,
      "Ġsaus": 8774,
      "Ġsult": 8775,
      "ĠMax": 8776,
      "ĠMuse": 8777,
      "Ġsovere": 8778,
      "thm": 8779,
      "ths": 8780,
      "Ġdegr": 8781,
      "ĠST": 8782,
      "ĠSon": 8783,
      "ĠSha": 8784,
      "Ġalley": 8785,
      "riv": 8786,
      "ĠWait": 8787,
      "ĠWILL": 8788,
      "Ġupset": 8789,
      "Ġnephew": 8790,
      "ulating": 8791,
      "andows": 8792,
      "ĠCatherine": 8793,
      "Ġalter": 8794,
      "Ġvow": 8795,
      "Ġvap": 8796,
      "Ġvoy": 8797,
      "antial": 8798,
      "usal": 8799,
      "ĠHereditary": 8800,
      "Ġcongr": 8801,
      "Ġcontained": 8802,
      "Ġnostr": 8803,
      "Ġthereof": 8804,
      "Ġshed": 8805,
      "Ġsheer": 8806,
      "ĠPorlock": 8807,
      "ĠPeshawur": 8808,
      "Ġunworthy": 8809,
      "ĠLake": 8810,
      "ĠLask": 8811,
      "Ġwilleth": 8812,
      "Ġagitated": 8813,
      "ĠFR": 8814,
      "ĠFour": 8815,
      "elled": 8816,
      "aging": 8817,
      "Ġintolerable": 8818,
      "ĠKash": 8819,
      "ĠKnow": 8820,
      "ĠEle": 8821,
      "ĠEver": 8822,
      "Ġtray": 8823,
      "ortment": 8824,
      "ops": 8825,
      "Ġpluck": 8826,
      "Ġbrisk": 8827,
      "Ġhowl": 8828,
      "Ġblust": 8829,
      "ordinate": 8830,
      "abby": 8831,
      "Ġclust": 8832,
      "areth": 8833,
      "Ġtwist": 8834,
      "Ġenable": 8835,
      "Ġ'\"": 8836,
      "Ġdisin": 8837,
      "Ġdiscl": 8838,
      "Ġdiseas": 8839,
      "Ġroast": 8840,
      "Ġimbec": 8841,
      "Ġgrudge": 8842,
      "chest": 8843,
      "Ġperil": 8844,
      "Ġsmart": 8845,
      "Ġflush": 8846,
      "Ġbacked": 8847,
      "Ġbackwards": 8848,
      "Ġpeaks": 8849,
      "ĠJose": 8850,
      "Ġscored": 8851,
      "Ġprel": 8852,
      "Ġspeeches": 8853,
      "ĠRoman": 8854,
      "Ġswinging": 8855,
      "renched": 8856,
      "Ġcru": 8857,
      "Ġcrash": 8858,
      "Ġglit": 8859,
      "Ġglist": 8860,
      "Ġglancing": 8861,
      "ossibly": 8862,
      "ĠZam": 8863,
      "Ġslain": 8864,
      "Ġslaves": 8865,
      "Ġwanting": 8866,
      "Ġseries": 8867,
      "Hear": 8868,
      "Ġmomentary": 8869,
      "Ġrecently": 8870,
      "Ġendowed": 8871,
      "Ġendured": 8872,
      "Ġchildish": 8873,
      "Ġsombre": 8874,
      "Ġdrill": 8875,
      "Ġcountries": 8876,
      "Ġboast": 8877,
      "Three": 8878,
      "Ġrepet": 8879,
      "Ġrepug": 8880,
      "Ġfaro": 8881,
      "Ġstreams": 8882,
      "Ġattribut": 8883,
      "ĠVers": 8884,
      "herent": 8885,
      "Ġsecurity": 8886,
      "Ġmarble": 8887,
      "Ġplayer": 8888,
      "ankers": 8889,
      "Ġdistinction": 8890,
      "ĠBaron": 8891,
      "Ġdiscovery": 8892,
      "Ġcuriously": 8893,
      "Ġcurses": 8894,
      "Ġpossibility": 8895,
      "Ġcoup": 8896,
      "Ġelm": 8897,
      "Ġhorrid": 8898,
      "Ġopenly": 8899,
      "Ġdelusion": 8900,
      "Ġassert": 8901,
      "Ġforefather": 8902,
      "Ġmonot": 8903,
      "Ġrestless": 8904,
      "Ġreaders": 8905,
      "Ġtreas": 8906,
      "Ġtreacher": 8907,
      "Ġrelent": 8908,
      "Ġrelated": 8909,
      "Ġrefres": 8910,
      "Ġlays": 8911,
      "Ġmisfortun": 8912,
      "Ġdetail": 8913,
      "Ġpromising": 8914,
      "Ġsnatch": 8915,
      "encies": 8916,
      "Ġeyebrows": 8917,
      "Ġparch": 8918,
      "Ġparallel": 8919,
      "Ġvisage": 8920,
      "Ġbarrel": 8921,
      "Ġillustrious": 8922,
      "Ġcondem": 8923,
      "ĠTHEE": 8924,
      "Ġcolt": 8925,
      "Ġproposal": 8926,
      "Ġstarts": 8927,
      "Ġsignific": 8928,
      "Ġdecision": 8929,
      "Ġextr": 8930,
      "Ġbreaketh": 8931,
      "Ġsympt": 8932,
      "glass": 8933,
      "Ġdriver": 8934,
      "Ġreasonably": 8935,
      "Ġdealings": 8936,
      "grity": 8937,
      "coll": 8938,
      "Ġrespected": 8939,
      "Ġcutting": 8940,
      "Ġdespised": 8941,
      "Ġveh": 8942,
      "Ġphot": 8943,
      "Ġobserver": 8944,
      "Ġescort": 8945,
      "ugged": 8946,
      "mediately": 8947,
      "Ġtemples": 8948,
      "Ġexperiment": 8949,
      "Ġshadowy": 8950,
      "Ġspoil": 8951,
      "boat": 8952,
      "Ġsenseless": 8953,
      "aneous": 8954,
      "aneously": 8955,
      "Ġjoyful": 8956,
      "Ġwinning": 8957,
      "ĠQuick": 8958,
      "Ġoccasional": 8959,
      "ĠUnited": 8960,
      "Ġcomplain": 8961,
      "Ġsinc": 8962,
      "Ġpulling": 8963,
      "Ġbottles": 8964,
      "Ġprecip": 8965,
      "Ġdresses": 8966,
      "Ġapproaching": 8967,
      "Ġappropri": 8968,
      "flies": 8969,
      "Ġfailure": 8970,
      "Ġlodging": 8971,
      "Ġstopping": 8972,
      "Ġvisitors": 8973,
      "Ġcharming": 8974,
      "Ġpunch": 8975,
      "ĠPresently": 8976,
      "Ġsensibility": 8977,
      "Ġsubjects": 8978,
      "Ġshameless": 8979,
      "Ġvoluntary": 8980,
      "Ġmutual": 8981,
      "Ġtrusted": 8982,
      "Ġheroism": 8983,
      "Ġstudies": 8984,
      "Ġsatisfy": 8985,
      "Ġneighbourhood": 8986,
      "ĠLearn": 8987,
      "Ġstrove": 8988,
      "Ġstroke": 8989,
      "Ġdiscussing": 8990,
      "Ġerrand": 8991,
      "Ġprofessor": 8992,
      "Ġdomin": 8993,
      "ĠMorgan": 8994,
      "Ġmarching": 8995,
      "Ġalarmed": 8996,
      "Ġchoked": 8997,
      "ĠExcellency": 8998,
      "Ġferoc": 8999,
      "office": 9000,
      "Ġsmoking": 9001,
      "Ġautom": 9002,
      "Ġdoctors": 9003,
      "Ġclimbed": 9004,
      "Ġpoisonous": 9005,
      "Ġruinous": 9006,
      "Before": 9007,
      "Ġfragment": 9008,
      "Ġgleaming": 9009,
      "Ġdisappear": 9010,
      "Surely": 9011,
      "Ġurchin": 9012,
      "Ġblew": 9013,
      "Ġpopulation": 9014,
      "Ġemerged": 9015,
      "Ġconclusion": 9016,
      "Ġforeigners": 9017,
      "Ġdistinguish": 9018,
      "Ġrifles": 9019,
      "Ġexecution": 9020,
      "Ġrepresenting": 9021,
      "Ġgateway": 9022,
      "Ġwhispering": 9023,
      "Ġinterpret": 9024,
      "Ġpillow": 9025,
      "amma": 9026,
      "Ġcracked": 9027,
      "Ġglimmer": 9028,
      "Ġdevelopment": 9029,
      "ĠRussian": 9030,
      "ĠRussians": 9031,
      "Ġprofessional": 9032,
      "Ġbodily": 9033,
      "Ġfilthy": 9034,
      "Ġpanic": 9035,
      "Ġeggs": 9036,
      "Ġmulti": 9037,
      "Ġtrifle": 9038,
      "Ġarticles": 9039,
      "Ġterrified": 9040,
      "Ġtyrant": 9041,
      "Ġexchange": 9042,
      "Ġdancer": 9043,
      "IGHT": 9044,
      "Ġtarant": 9045,
      "Ġdocuments": 9046,
      "openhau": 9047,
      "humour": 9048,
      "ĠElm": 9049,
      "natured": 9050,
      "Ġdetective": 9051,
      "Ġzeal": 9052,
      "Ġsurpassed": 9053,
      "Ġrecollections": 9054,
      "Ã¡s": 9055,
      "Ġornament": 9056,
      "Ġbulk": 9057,
      "Ġpiqu": 9058,
      "ĠEarl": 9059,
      "Ġbrandy": 9060,
      "Ġnumbers": 9061,
      "Ġreminiscences": 9062,
      "Ġlandlord": 9063,
      "Ġshrugged": 9064,
      "Ġmartyr": 9065,
      "Ġhearken": 9066,
      "Ġgilded": 9067,
      "quarters": 9068,
      "Ġscholar": 9069,
      "Ġgossip": 9070,
      "Ġransom": 9071,
      "Ġbenevolence": 9072,
      "Ġpenitent": 9073,
      "Ġcandidate": 9074,
      "Ġcoolly": 9075,
      "Ġhedge": 9076,
      "Ġclergyman": 9077,
      "Ġattachment": 9078,
      "ĠOften": 9079,
      "ĠProtestant": 9080,
      "Ġemancip": 9081,
      "Ġlandscape": 9082,
      "Ġsymbol": 9083,
      "Ġpiano": 9084,
      "ĠIseka": 9085,
      "ĠTemple": 9086,
      "ĠLewandows": 9087,
      "Ġpebbles": 9088,
      "Ġtremendous": 9089,
      "Ġinvariably": 9090,
      "ĠTirthankers": 9091,
      "ĠMuseum": 9092,
      "Ġsovereign": 9093,
      "Ġcongrat": 9094,
      "ĠLasky": 9095,
      "Ġdiseases": 9096,
      "Ġmisfortunes": 9097,
      "openhauer": 9098,
      "ĠLewandowski": 9099,
      ".).": 9100,
      "18": 9101,
      "41": 9102,
      "Again": 9103,
      "Bar": 9104,
      "Billy": 9105,
      "Douglas": 9106,
      "Ev": 9107,
      "ITH": 9108,
      "Kat": 9109,
      "Le": 9110,
      "Mac": 9111,
      "Our": 9112,
      "Pr": 9113,
      "Phoebe": 9114,
      "Poor": 9115,
      "SE": 9116,
      "Zamm": 9117,
      "aign": 9118,
      "bet": 9119,
      "bal": 9120,
      "cap": 9121,
      "cons": 9122,
      "chers": 9123,
      "did": 9124,
      "dro": 9125,
      "eight": 9126,
      "eff": 9127,
      "fly": 9128,
      "gren": 9129,
      "govern": 9130,
      "houses": 9131,
      "jug": 9132,
      "keth": 9133,
      "life": 9134,
      "mar": 9135,
      "pore": 9136,
      "press": 9137,
      "rim": 9138,
      "smen": 9139,
      "ties": 9140,
      "turned": 9141,
      "uate": 9142,
      "vis": 9143,
      "vous": 9144,
      "year": 9145,
      "Ġtide": 9146,
      "Ġtune": 9147,
      "Ġtyp": 9148,
      "Ġtips": 9149,
      "Ġtasted": 9150,
      "inue": 9151,
      "Ġtheat": 9152,
      "Ġwits": 9153,
      "Ġwipe": 9154,
      "Ġsite": 9155,
      "rep": 9156,
      "Ġhood": 9157,
      "erred": 9158,
      "erton": 9159,
      "Ġmour": 9160,
      "Ġbully": 9161,
      "Ġbribe": 9162,
      "itute": 9163,
      "iser": 9164,
      "ischen": 9165,
      "Ġfists": 9166,
      "Ġcad": 9167,
      "Ġcack": 9168,
      "Ġcities": 9169,
      "Ġcalf": 9170,
      "Ġcert": 9171,
      "Ġcaval": 9172,
      "enborn": 9173,
      "Ġdict": 9174,
      "Ġdances": 9175,
      "Ġdump": 9176,
      "Ġdwarf": 9177,
      "Ġdingy": 9178,
      "orter": 9179,
      "orms": 9180,
      "Ġpang": 9181,
[...]
